{
  "version": "1.0",
  "truncation": null,
  "padding": null,
  "added_tokens": [
    {
      "id": 0,
      "content": "[PAD]",
      "single_word": false,
      "lstrip": false,
      "rstrip": false,
      "normalized": false,
      "special": true
    },
    {
      "id": 1,
      "content": "[UNK]",
      "single_word": false,
      "lstrip": false,
      "rstrip": false,
      "normalized": false,
      "special": true
    },
    {
      "id": 2,
      "content": "[BOS]",
      "single_word": false,
      "lstrip": false,
      "rstrip": false,
      "normalized": false,
      "special": true
    },
    {
      "id": 3,
      "content": "[EOS]",
      "single_word": false,
      "lstrip": false,
      "rstrip": false,
      "normalized": false,
      "special": true
    }
  ],
  "normalizer": null,
  "pre_tokenizer": {
    "type": "Whitespace"
  },
  "post_processor": {
    "type": "TemplateProcessing",
    "single": [
      {
        "SpecialToken": {
          "id": "[BOS]",
          "type_id": 0
        }
      },
      {
        "Sequence": {
          "id": "A",
          "type_id": 0
        }
      },
      {
        "SpecialToken": {
          "id": "[EOS]",
          "type_id": 0
        }
      }
    ],
    "pair": [
      {
        "Sequence": {
          "id": "A",
          "type_id": 0
        }
      },
      {
        "Sequence": {
          "id": "B",
          "type_id": 1
        }
      }
    ],
    "special_tokens": {
      "[BOS]": {
        "id": "[BOS]",
        "ids": [
          2
        ],
        "tokens": [
          "[BOS]"
        ]
      },
      "[EOS]": {
        "id": "[EOS]",
        "ids": [
          3
        ],
        "tokens": [
          "[EOS]"
        ]
      }
    }
  },
  "decoder": null,
  "model": {
    "type": "BPE",
    "dropout": null,
    "unk_token": "[UNK]",
    "continuing_subword_prefix": null,
    "end_of_word_suffix": null,
    "fuse_unk": false,
    "byte_fallback": false,
    "ignore_merges": false,
    "vocab": {
      "[PAD]": 0,
      "[UNK]": 1,
      "[BOS]": 2,
      "[EOS]": 3,
      "!": 4,
      "\"": 5,
      "#": 6,
      "$": 7,
      "%": 8,
      "&": 9,
      "'": 10,
      "(": 11,
      ")": 12,
      "*": 13,
      "+": 14,
      ",": 15,
      "-": 16,
      ".": 17,
      "/": 18,
      "0": 19,
      "1": 20,
      "2": 21,
      "3": 22,
      "4": 23,
      "5": 24,
      "6": 25,
      "7": 26,
      "8": 27,
      "9": 28,
      ":": 29,
      ";": 30,
      "<": 31,
      "=": 32,
      ">": 33,
      "?": 34,
      "@": 35,
      "A": 36,
      "B": 37,
      "C": 38,
      "D": 39,
      "E": 40,
      "F": 41,
      "G": 42,
      "H": 43,
      "I": 44,
      "J": 45,
      "K": 46,
      "L": 47,
      "M": 48,
      "N": 49,
      "O": 50,
      "P": 51,
      "Q": 52,
      "R": 53,
      "S": 54,
      "T": 55,
      "U": 56,
      "V": 57,
      "W": 58,
      "X": 59,
      "Y": 60,
      "Z": 61,
      "[": 62,
      "\\": 63,
      "]": 64,
      "^": 65,
      "_": 66,
      "`": 67,
      "a": 68,
      "b": 69,
      "c": 70,
      "d": 71,
      "e": 72,
      "f": 73,
      "g": 74,
      "h": 75,
      "i": 76,
      "j": 77,
      "k": 78,
      "l": 79,
      "m": 80,
      "n": 81,
      "o": 82,
      "p": 83,
      "q": 84,
      "r": 85,
      "s": 86,
      "t": 87,
      "u": 88,
      "v": 89,
      "w": 90,
      "x": 91,
      "y": 92,
      "z": 93,
      "{": 94,
      "}": 95,
      "~": 96,
      "": 97,
      "": 98,
      "": 99,
      "¡": 100,
      "¢": 101,
      "£": 102,
      "¤": 103,
      "¥": 104,
      "¦": 105,
      "§": 106,
      "¨": 107,
      "©": 108,
      "ª": 109,
      "«": 110,
      "¬": 111,
      "­": 112,
      "¯": 113,
      "°": 114,
      "±": 115,
      "²": 116,
      "³": 117,
      "´": 118,
      "µ": 119,
      "¶": 120,
      "·": 121,
      "¸": 122,
      "¹": 123,
      "º": 124,
      "½": 125,
      "¾": 126,
      "Á": 127,
      "Â": 128,
      "Ã": 129,
      "Ä": 130,
      "Ç": 131,
      "É": 132,
      "Ì": 133,
      "Í": 134,
      "Ï": 135,
      "Ñ": 136,
      "Ò": 137,
      "Ó": 138,
      "Ö": 139,
      "×": 140,
      "Ú": 141,
      "à": 142,
      "á": 143,
      "â": 144,
      "ã": 145,
      "ä": 146,
      "ç": 147,
      "è": 148,
      "é": 149,
      "ê": 150,
      "ë": 151,
      "ì": 152,
      "í": 153,
      "î": 154,
      "ï": 155,
      "ð": 156,
      "ñ": 157,
      "ó": 158,
      "ô": 159,
      "ö": 160,
      "÷": 161,
      "ø": 162,
      "ù": 163,
      "ú": 164,
      "û": 165,
      "ü": 166,
      "ă": 167,
      "ć": 168,
      "Č": 169,
      "č": 170,
      "ė": 171,
      "ğ": 172,
      "ī": 173,
      "ō": 174,
      "Ş": 175,
      "Š": 176,
      "š": 177,
      "ŵ": 178,
      "Ž": 179,
      "ž": 180,
      "ư": 181,
      "ǎ": 182,
      "ǖ": 183,
      "ǜ": 184,
      "ȼ": 185,
      "ʖ": 186,
      "ˊ": 187,
      "ˋ": 188,
      "˙": 189,
      "Β": 190,
      "Ν": 191,
      "Τ": 192,
      "Ω": 193,
      "α": 194,
      "β": 195,
      "γ": 196,
      "δ": 197,
      "μ": 198,
      "τ": 199,
      "Б": 200,
      "М": 201,
      "Ф": 202,
      "Ч": 203,
      "Ь": 204,
      "е": 205,
      "и": 206,
      "м": 207,
      "п": 208,
      "р": 209,
      "т": 210,
      "э": 211,
      "ҥ": 212,
      "һ": 213,
      "Ԥ": 214,
      "ע": 215,
      "،": 216,
      "ُ": 217,
      "๘": 218,
      "ဪ": 219,
      "Ⴗ": 220,
      "Ἧ": 221,
      "–": 222,
      "—": 223,
      "―": 224,
      "‘": 225,
      "’": 226,
      "“": 227,
      "”": 228,
      "•": 229,
      "…": 230,
      "‰": 231,
      "′": 232,
      "″": 233,
      "‵": 234,
      "※": 235,
      "₤": 236,
      "€": 237,
      "™": 238,
      "↖": 239,
      "−": 240,
      "∗": 241,
      "∮": 242,
      "∵": 243,
      "∼": 244,
      "⊿": 245,
      "⑴": 246,
      "⑵": 247,
      "⑶": 248,
      "⑷": 249,
      "⑸": 250,
      "─": 251,
      "┕": 252,
      "┣": 253,
      "┮": 254,
      "┿": 255,
      "╃": 256,
      "╢": 257,
      "○": 258,
      "●": 259,
      "♪": 260,
      "♫": 261,
      "、": 262,
      "。": 263,
      "〇": 264,
      "〈": 265,
      "〉": 266,
      "《": 267,
      "》": 268,
      "「": 269,
      "」": 270,
      "『": 271,
      "』": 272,
      "【": 273,
      "】": 274,
      "〔": 275,
      "〕": 276,
      "〝": 277,
      "〞": 278,
      "ぃ": 279,
      "い": 280,
      "ぇ": 281,
      "き": 282,
      "ぐ": 283,
      "ざ": 284,
      "ず": 285,
      "せ": 286,
      "そ": 287,
      "ち": 288,
      "ぱ": 289,
      "び": 290,
      "ぶ": 291,
      "ぺ": 292,
      "み": 293,
      "る": 294,
      "れ": 295,
      "ゑ": 296,
      "ア": 297,
      "カ": 298,
      "ガ": 299,
      "ゴ": 300,
      "サ": 301,
      "ゼ": 302,
      "タ": 303,
      "デ": 304,
      "ネ": 305,
      "ノ": 306,
      "フ": 307,
      "メ": 308,
      "ヰ": 309,
      "ヶ": 310,
      "・": 311,
      "ㄆ": 312,
      "ㄇ": 313,
      "ㄈ": 314,
      "ㄓ": 315,
      "ㄛ": 316,
      "ㄠ": 317,
      "ㄨ": 318,
      "㈠": 319,
      "㈡": 320,
      "㈢": 321,
      "㈣": 322,
      "㈤": 323,
      "㈥": 324,
      "㈦": 325,
      "㈨": 326,
      "㊽": 327,
      "㎝": 328,
      "㏄": 329,
      "㏑": 330,
      "一": 331,
      "丁": 332,
      "七": 333,
      "万": 334,
      "丈": 335,
      "三": 336,
      "上": 337,
      "下": 338,
      "不": 339,
      "与": 340,
      "丐": 341,
      "丑": 342,
      "专": 343,
      "且": 344,
      "世": 345,
      "丘": 346,
      "丙": 347,
      "业": 348,
      "丛": 349,
      "东": 350,
      "丝": 351,
      "丟": 352,
      "丢": 353,
      "两": 354,
      "严": 355,
      "並": 356,
      "丧": 357,
      "个": 358,
      "丫": 359,
      "中": 360,
      "丰": 361,
      "串": 362,
      "临": 363,
      "丸": 364,
      "丹": 365,
      "为": 366,
      "主": 367,
      "丽": 368,
      "举": 369,
      "乃": 370,
      "久": 371,
      "么": 372,
      "义": 373,
      "之": 374,
      "乌": 375,
      "乍": 376,
      "乎": 377,
      "乏": 378,
      "乐": 379,
      "乔": 380,
      "乖": 381,
      "乘": 382,
      "乙": 383,
      "九": 384,
      "乞": 385,
      "也": 386,
      "习": 387,
      "乡": 388,
      "书": 389,
      "买": 390,
      "乱": 391,
      "乳": 392,
      "乾": 393,
      "亂": 394,
      "了": 395,
      "予": 396,
      "争": 397,
      "事": 398,
      "二": 399,
      "于": 400,
      "亏": 401,
      "云": 402,
      "互": 403,
      "五": 404,
      "井": 405,
      "亚": 406,
      "些": 407,
      "亞": 408,
      "亟": 409,
      "亡": 410,
      "交": 411,
      "亥": 412,
      "亦": 413,
      "产": 414,
      "亨": 415,
      "享": 416,
      "京": 417,
      "亭": 418,
      "亮": 419,
      "亲": 420,
      "亵": 421,
      "人": 422,
      "亿": 423,
      "什": 424,
      "仁": 425,
      "仅": 426,
      "仆": 427,
      "仇": 428,
      "今": 429,
      "介": 430,
      "仍": 431,
      "从": 432,
      "仑": 433,
      "仓": 434,
      "仔": 435,
      "他": 436,
      "仗": 437,
      "付": 438,
      "仙": 439,
      "代": 440,
      "令": 441,
      "以": 442,
      "仪": 443,
      "们": 444,
      "仰": 445,
      "仲": 446,
      "件": 447,
      "价": 448,
      "任": 449,
      "份": 450,
      "仿": 451,
      "企": 452,
      "伊": 453,
      "伍": 454,
      "伏": 455,
      "伐": 456,
      "休": 457,
      "众": 458,
      "优": 459,
      "伙": 460,
      "会": 461,
      "伞": 462,
      "伟": 463,
      "传": 464,
      "伤": 465,
      "伦": 466,
      "伪": 467,
      "伯": 468,
      "估": 469,
      "伴": 470,
      "伸": 471,
      "伺": 472,
      "似": 473,
      "伽": 474,
      "但": 475,
      "位": 476,
      "低": 477,
      "住": 478,
      "佐": 479,
      "佑": 480,
      "体": 481,
      "佔": 482,
      "何": 483,
      "余": 484,
      "佛": 485,
      "作": 486,
      "你": 487,
      "佣": 488,
      "佩": 489,
      "佬": 490,
      "佳": 491,
      "佽": 492,
      "使": 493,
      "侄": 494,
      "來": 495,
      "侈": 496,
      "例": 497,
      "侍": 498,
      "供": 499,
      "侜": 500,
      "依": 501,
      "侠": 502,
      "侣": 503,
      "侦": 504,
      "侧": 505,
      "侨": 506,
      "侪": 507,
      "侮": 508,
      "侯": 509,
      "侵": 510,
      "侶": 511,
      "便": 512,
      "係": 513,
      "促": 514,
      "俄": 515,
      "俊": 516,
      "俗": 517,
      "俘": 518,
      "保": 519,
      "俟": 520,
      "信": 521,
      "俩": 522,
      "俭": 523,
      "修": 524,
      "俯": 525,
      "俱": 526,
      "俾": 527,
      "倆": 528,
      "個": 529,
      "倍": 530,
      "們": 531,
      "倒": 532,
      "候": 533,
      "倚": 534,
      "借": 535,
      "倡": 536,
      "倦": 537,
      "倩": 538,
      "倫": 539,
      "债": 540,
      "值": 541,
      "倾": 542,
      "假": 543,
      "偉": 544,
      "偏": 545,
      "偕": 546,
      "做": 547,
      "停": 548,
      "健": 549,
      "側": 550,
      "偶": 551,
      "偷": 552,
      "偽": 553,
      "偿": 554,
      "傀": 555,
      "傅": 556,
      "傍": 557,
      "傑": 558,
      "傘": 559,
      "備": 560,
      "傢": 561,
      "傣": 562,
      "储": 563,
      "催": 564,
      "傲": 565,
      "傳": 566,
      "債": 567,
      "傷": 568,
      "傻": 569,
      "傾": 570,
      "僅": 571,
      "像": 572,
      "僕": 573,
      "僚": 574,
      "僭": 575,
      "僳": 576,
      "僵": 577,
      "價": 578,
      "僻": 579,
      "儀": 580,
      "儒": 581,
      "償": 582,
      "儡": 583,
      "優": 584,
      "儿": 585,
      "允": 586,
      "元": 587,
      "兄": 588,
      "充": 589,
      "兆": 590,
      "兇": 591,
      "先": 592,
      "光": 593,
      "克": 594,
      "免": 595,
      "兑": 596,
      "兒": 597,
      "兔": 598,
      "党": 599,
      "兜": 600,
      "入": 601,
      "內": 602,
      "全": 603,
      "兩": 604,
      "八": 605,
      "公": 606,
      "六": 607,
      "兰": 608,
      "共": 609,
      "关": 610,
      "兴": 611,
      "兵": 612,
      "其": 613,
      "具": 614,
      "典": 615,
      "兹": 616,
      "养": 617,
      "兼": 618,
      "兽": 619,
      "内": 620,
      "冈": 621,
      "冊": 622,
      "册": 623,
      "再": 624,
      "冒": 625,
      "冗": 626,
      "写": 627,
      "军": 628,
      "农": 629,
      "冠": 630,
      "冤": 631,
      "冥": 632,
      "冬": 633,
      "冯": 634,
      "冰": 635,
      "冲": 636,
      "决": 637,
      "况": 638,
      "冶": 639,
      "冷": 640,
      "冻": 641,
      "净": 642,
      "准": 643,
      "凉": 644,
      "凌": 645,
      "减": 646,
      "凑": 647,
      "凝": 648,
      "几": 649,
      "凡": 650,
      "凤": 651,
      "凭": 652,
      "凯": 653,
      "凱": 654,
      "凶": 655,
      "凸": 656,
      "凹": 657,
      "出": 658,
      "击": 659,
      "函": 660,
      "凿": 661,
      "刀": 662,
      "刁": 663,
      "刃": 664,
      "分": 665,
      "切": 666,
      "刊": 667,
      "刑": 668,
      "划": 669,
      "列": 670,
      "刘": 671,
      "则": 672,
      "刚": 673,
      "创": 674,
      "初": 675,
      "删": 676,
      "判": 677,
      "別": 678,
      "利": 679,
      "别": 680,
      "刮": 681,
      "到": 682,
      "制": 683,
      "刷": 684,
      "券": 685,
      "刹": 686,
      "刺": 687,
      "刻": 688,
      "剂": 689,
      "則": 690,
      "削": 691,
      "前": 692,
      "剑": 693,
      "剔": 694,
      "剖": 695,
      "剛": 696,
      "剥": 697,
      "剧": 698,
      "剩": 699,
      "剪": 700,
      "副": 701,
      "割": 702,
      "創": 703,
      "劃": 704,
      "劇": 705,
      "劑": 706,
      "力": 707,
      "劝": 708,
      "办": 709,
      "功": 710,
      "加": 711,
      "务": 712,
      "劣": 713,
      "动": 714,
      "助": 715,
      "努": 716,
      "劫": 717,
      "励": 718,
      "劲": 719,
      "劳": 720,
      "势": 721,
      "勃": 722,
      "勇": 723,
      "勉": 724,
      "勋": 725,
      "勒": 726,
      "動": 727,
      "勘": 728,
      "務": 729,
      "勝": 730,
      "勞": 731,
      "募": 732,
      "勢": 733,
      "勤": 734,
      "勵": 735,
      "勾": 736,
      "勿": 737,
      "匀": 738,
      "包": 739,
      "匈": 740,
      "化": 741,
      "北": 742,
      "匙": 743,
      "匠": 744,
      "匣": 745,
      "匪": 746,
      "匮": 747,
      "匹": 748,
      "区": 749,
      "医": 750,
      "匿": 751,
      "區": 752,
      "十": 753,
      "千": 754,
      "升": 755,
      "午": 756,
      "半": 757,
      "华": 758,
      "协": 759,
      "卑": 760,
      "卓": 761,
      "協": 762,
      "单": 763,
      "卖": 764,
      "南": 765,
      "博": 766,
      "卜": 767,
      "占": 768,
      "卡": 769,
      "卢": 770,
      "卦": 771,
      "卧": 772,
      "卫": 773,
      "卯": 774,
      "印": 775,
      "危": 776,
      "即": 777,
      "却": 778,
      "卵": 779,
      "卷": 780,
      "卸": 781,
      "卻": 782,
      "卿": 783,
      "厂": 784,
      "厄": 785,
      "厅": 786,
      "历": 787,
      "厉": 788,
      "压": 789,
      "厌": 790,
      "厕": 791,
      "厘": 792,
      "厚": 793,
      "原": 794,
      "厢": 795,
      "厨": 796,
      "厩": 797,
      "厭": 798,
      "厲": 799,
      "去": 800,
      "县": 801,
      "参": 802,
      "參": 803,
      "又": 804,
      "叉": 805,
      "及": 806,
      "友": 807,
      "双": 808,
      "反": 809,
      "发": 810,
      "叔": 811,
      "取": 812,
      "受": 813,
      "变": 814,
      "叙": 815,
      "叛": 816,
      "叟": 817,
      "叠": 818,
      "口": 819,
      "古": 820,
      "句": 821,
      "另": 822,
      "叨": 823,
      "叩": 824,
      "只": 825,
      "叫": 826,
      "召": 827,
      "叭": 828,
      "叮": 829,
      "可": 830,
      "台": 831,
      "史": 832,
      "右": 833,
      "叵": 834,
      "叶": 835,
      "号": 836,
      "司": 837,
      "叹": 838,
      "吁": 839,
      "吃": 840,
      "各": 841,
      "合": 842,
      "吉": 843,
      "吊": 844,
      "吋": 845,
      "同": 846,
      "名": 847,
      "后": 848,
      "吐": 849,
      "向": 850,
      "吓": 851,
      "吕": 852,
      "吗": 853,
      "君": 854,
      "吞": 855,
      "吟": 856,
      "否": 857,
      "吧": 858,
      "吨": 859,
      "吩": 860,
      "含": 861,
      "听": 862,
      "启": 863,
      "吱": 864,
      "吴": 865,
      "吵": 866,
      "吶": 867,
      "吸": 868,
      "吹": 869,
      "吻": 870,
      "吼": 871,
      "吾": 872,
      "呀": 873,
      "呃": 874,
      "呆": 875,
      "呈": 876,
      "告": 877,
      "呐": 878,
      "呗": 879,
      "员": 880,
      "呜": 881,
      "呢": 882,
      "呣": 883,
      "呦": 884,
      "周": 885,
      "味": 886,
      "呵": 887,
      "呻": 888,
      "呼": 889,
      "命": 890,
      "咀": 891,
      "咄": 892,
      "咋": 893,
      "和": 894,
      "咎": 895,
      "咐": 896,
      "咒": 897,
      "咔": 898,
      "咕": 899,
      "咖": 900,
      "咙": 901,
      "咚": 902,
      "咦": 903,
      "咨": 904,
      "咪": 905,
      "咬": 906,
      "咯": 907,
      "咱": 908,
      "咳": 909,
      "咸": 910,
      "咻": 911,
      "咽": 912,
      "哀": 913,
      "品": 914,
      "哇": 915,
      "哈": 916,
      "哉": 917,
      "响": 918,
      "哎": 919,
      "哑": 920,
      "哔": 921,
      "哗": 922,
      "哝": 923,
      "哟": 924,
      "員": 925,
      "哥": 926,
      "哦": 927,
      "哨": 928,
      "哩": 929,
      "哪": 930,
      "哭": 931,
      "哲": 932,
      "哺": 933,
      "哼": 934,
      "唆": 935,
      "唇": 936,
      "唉": 937,
      "唐": 938,
      "唔": 939,
      "唠": 940,
      "唤": 941,
      "唬": 942,
      "售": 943,
      "唯": 944,
      "唱": 945,
      "唷": 946,
      "唾": 947,
      "啃": 948,
      "商": 949,
      "啊": 950,
      "問": 951,
      "啟": 952,
      "啡": 953,
      "啤": 954,
      "啥": 955,
      "啦": 956,
      "啰": 957,
      "啱": 958,
      "啸": 959,
      "喀": 960,
      "喂": 961,
      "善": 962,
      "喉": 963,
      "喊": 964,
      "喋": 965,
      "喔": 966,
      "喘": 967,
      "喚": 968,
      "喜": 969,
      "喝": 970,
      "喬": 971,
      "單": 972,
      "喳": 973,
      "喷": 974,
      "喻": 975,
      "喽": 976,
      "嗅": 977,
      "嗎": 978,
      "嗒": 979,
      "嗣": 980,
      "嗤": 981,
      "嗨": 982,
      "嗯": 983,
      "嘀": 984,
      "嘉": 985,
      "嘎": 986,
      "嘗": 987,
      "嘘": 988,
      "嘛": 989,
      "嘞": 990,
      "嘣": 991,
      "嘱": 992,
      "嘲": 993,
      "嘴": 994,
      "嘻": 995,
      "嘿": 996,
      "噎": 997,
      "噜": 998,
      "噢": 999,
      "器": 1000,
      "噩": 1001,
      "噪": 1002,
      "噬": 1003,
      "嚇": 1004,
      "嚏": 1005,
      "嚒": 1006,
      "嚓": 1007,
      "嚟": 1008,
      "嚣": 1009,
      "嚴": 1010,
      "嚼": 1011,
      "囊": 1012,
      "囚": 1013,
      "四": 1014,
      "回": 1015,
      "因": 1016,
      "团": 1017,
      "囤": 1018,
      "园": 1019,
      "困": 1020,
      "囱": 1021,
      "围": 1022,
      "固": 1023,
      "国": 1024,
      "图": 1025,
      "囿": 1026,
      "圃": 1027,
      "圆": 1028,
      "圈": 1029,
      "國": 1030,
      "園": 1031,
      "圓": 1032,
      "圖": 1033,
      "團": 1034,
      "土": 1035,
      "圣": 1036,
      "在": 1037,
      "圭": 1038,
      "地": 1039,
      "场": 1040,
      "圾": 1041,
      "址": 1042,
      "坂": 1043,
      "均": 1044,
      "坍": 1045,
      "坎": 1046,
      "坏": 1047,
      "坐": 1048,
      "坑": 1049,
      "块": 1050,
      "坚": 1051,
      "坛": 1052,
      "坞": 1053,
      "坟": 1054,
      "坠": 1055,
      "坡": 1056,
      "坦": 1057,
      "坨": 1058,
      "坪": 1059,
      "坯": 1060,
      "坳": 1061,
      "垂": 1062,
      "垃": 1063,
      "垄": 1064,
      "型": 1065,
      "垒": 1066,
      "垦": 1067,
      "垫": 1068,
      "垮": 1069,
      "埃": 1070,
      "埋": 1071,
      "城": 1072,
      "埔": 1073,
      "域": 1074,
      "培": 1075,
      "基": 1076,
      "堂": 1077,
      "堅": 1078,
      "堆": 1079,
      "堕": 1080,
      "堡": 1081,
      "堤": 1082,
      "堪": 1083,
      "報": 1084,
      "場": 1085,
      "堵": 1086,
      "塊": 1087,
      "塌": 1088,
      "塑": 1089,
      "塔": 1090,
      "塞": 1091,
      "填": 1092,
      "塵": 1093,
      "境": 1094,
      "墅": 1095,
      "墓": 1096,
      "墙": 1097,
      "墜": 1098,
      "增": 1099,
      "墟": 1100,
      "墨": 1101,
      "墩": 1102,
      "壁": 1103,
      "壑": 1104,
      "壓": 1105,
      "壕": 1106,
      "壞": 1107,
      "壤": 1108,
      "士": 1109,
      "壮": 1110,
      "壯": 1111,
      "声": 1112,
      "壳": 1113,
      "壺": 1114,
      "壽": 1115,
      "处": 1116,
      "备": 1117,
      "复": 1118,
      "夏": 1119,
      "夕": 1120,
      "外": 1121,
      "多": 1122,
      "夜": 1123,
      "够": 1124,
      "夠": 1125,
      "夢": 1126,
      "大": 1127,
      "天": 1128,
      "太": 1129,
      "夫": 1130,
      "央": 1131,
      "失": 1132,
      "头": 1133,
      "夷": 1134,
      "夸": 1135,
      "夹": 1136,
      "夺": 1137,
      "夾": 1138,
      "奄": 1139,
      "奇": 1140,
      "奈": 1141,
      "奉": 1142,
      "奋": 1143,
      "奎": 1144,
      "奏": 1145,
      "契": 1146,
      "奔": 1147,
      "奖": 1148,
      "套": 1149,
      "奠": 1150,
      "奢": 1151,
      "奥": 1152,
      "奧": 1153,
      "女": 1154,
      "奴": 1155,
      "奶": 1156,
      "奸": 1157,
      "她": 1158,
      "好": 1159,
      "奾": 1160,
      "如": 1161,
      "妃": 1162,
      "妄": 1163,
      "妆": 1164,
      "妇": 1165,
      "妈": 1166,
      "妊": 1167,
      "妍": 1168,
      "妒": 1169,
      "妓": 1170,
      "妖": 1171,
      "妙": 1172,
      "妞": 1173,
      "妥": 1174,
      "妨": 1175,
      "妩": 1176,
      "妮": 1177,
      "妲": 1178,
      "妳": 1179,
      "妹": 1180,
      "妻": 1181,
      "姆": 1182,
      "姊": 1183,
      "始": 1184,
      "姐": 1185,
      "姑": 1186,
      "姓": 1187,
      "委": 1188,
      "姘": 1189,
      "姚": 1190,
      "姜": 1191,
      "姥": 1192,
      "姨": 1193,
      "姬": 1194,
      "姻": 1195,
      "姿": 1196,
      "威": 1197,
      "娃": 1198,
      "娅": 1199,
      "娘": 1200,
      "娜": 1201,
      "娠": 1202,
      "娥": 1203,
      "娩": 1204,
      "娱": 1205,
      "娴": 1206,
      "娶": 1207,
      "娼": 1208,
      "婆": 1209,
      "婉": 1210,
      "婊": 1211,
      "婓": 1212,
      "婚": 1213,
      "婦": 1214,
      "婪": 1215,
      "婴": 1216,
      "媒": 1217,
      "媚": 1218,
      "媳": 1219,
      "媽": 1220,
      "嫁": 1221,
      "嫂": 1222,
      "嫉": 1223,
      "嫌": 1224,
      "嫖": 1225,
      "嫩": 1226,
      "嬰": 1227,
      "嬷": 1228,
      "孀": 1229,
      "子": 1230,
      "孑": 1231,
      "孔": 1232,
      "孕": 1233,
      "字": 1234,
      "存": 1235,
      "孙": 1236,
      "孝": 1237,
      "孟": 1238,
      "季": 1239,
      "孤": 1240,
      "学": 1241,
      "孩": 1242,
      "孵": 1243,
      "學": 1244,
      "孺": 1245,
      "孽": 1246,
      "宁": 1247,
      "它": 1248,
      "宅": 1249,
      "宇": 1250,
      "守": 1251,
      "安": 1252,
      "宋": 1253,
      "完": 1254,
      "宏": 1255,
      "宗": 1256,
      "官": 1257,
      "宙": 1258,
      "定": 1259,
      "宛": 1260,
      "宜": 1261,
      "宝": 1262,
      "实": 1263,
      "宠": 1264,
      "审": 1265,
      "客": 1266,
      "宣": 1267,
      "室": 1268,
      "宥": 1269,
      "宪": 1270,
      "宫": 1271,
      "宮": 1272,
      "宰": 1273,
      "害": 1274,
      "宴": 1275,
      "宵": 1276,
      "家": 1277,
      "容": 1278,
      "宽": 1279,
      "宾": 1280,
      "宿": 1281,
      "寂": 1282,
      "寄": 1283,
      "密": 1284,
      "寇": 1285,
      "富": 1286,
      "寒": 1287,
      "寓": 1288,
      "寝": 1289,
      "寞": 1290,
      "察": 1291,
      "寡": 1292,
      "寥": 1293,
      "實": 1294,
      "寧": 1295,
      "寨": 1296,
      "審": 1297,
      "寫": 1298,
      "寬": 1299,
      "寵": 1300,
      "寶": 1301,
      "寸": 1302,
      "对": 1303,
      "寺": 1304,
      "寻": 1305,
      "导": 1306,
      "寿": 1307,
      "封": 1308,
      "射": 1309,
      "将": 1310,
      "將": 1311,
      "專": 1312,
      "尉": 1313,
      "尊": 1314,
      "對": 1315,
      "導": 1316,
      "小": 1317,
      "少": 1318,
      "尔": 1319,
      "尖": 1320,
      "尘": 1321,
      "尚": 1322,
      "尝": 1323,
      "尤": 1324,
      "尧": 1325,
      "尬": 1326,
      "就": 1327,
      "尴": 1328,
      "尸": 1329,
      "尺": 1330,
      "尼": 1331,
      "尽": 1332,
      "尾": 1333,
      "尿": 1334,
      "局": 1335,
      "屁": 1336,
      "层": 1337,
      "居": 1338,
      "屈": 1339,
      "届": 1340,
      "屋": 1341,
      "屌": 1342,
      "屍": 1343,
      "屎": 1344,
      "屏": 1345,
      "屑": 1346,
      "展": 1347,
      "属": 1348,
      "屠": 1349,
      "屡": 1350,
      "履": 1351,
      "屬": 1352,
      "屯": 1353,
      "山": 1354,
      "屿": 1355,
      "岁": 1356,
      "岆": 1357,
      "岌": 1358,
      "岖": 1359,
      "岗": 1360,
      "岛": 1361,
      "岩": 1362,
      "岭": 1363,
      "岳": 1364,
      "岸": 1365,
      "岿": 1366,
      "峙": 1367,
      "峡": 1368,
      "峦": 1369,
      "峭": 1370,
      "峰": 1371,
      "島": 1372,
      "峻": 1373,
      "崇": 1374,
      "崎": 1375,
      "崔": 1376,
      "崖": 1377,
      "崛": 1378,
      "崩": 1379,
      "崭": 1380,
      "崽": 1381,
      "嵌": 1382,
      "巅": 1383,
      "川": 1384,
      "州": 1385,
      "巡": 1386,
      "巢": 1387,
      "工": 1388,
      "左": 1389,
      "巧": 1390,
      "巨": 1391,
      "巩": 1392,
      "巫": 1393,
      "差": 1394,
      "己": 1395,
      "已": 1396,
      "巴": 1397,
      "巷": 1398,
      "巾": 1399,
      "币": 1400,
      "市": 1401,
      "布": 1402,
      "帅": 1403,
      "帆": 1404,
      "师": 1405,
      "希": 1406,
      "帐": 1407,
      "帕": 1408,
      "帖": 1409,
      "帘": 1410,
      "帜": 1411,
      "帝": 1412,
      "带": 1413,
      "帧": 1414,
      "師": 1415,
      "席": 1416,
      "帮": 1417,
      "帶": 1418,
      "常": 1419,
      "帽": 1420,
      "幅": 1421,
      "幌": 1422,
      "幕": 1423,
      "幢": 1424,
      "幣": 1425,
      "幫": 1426,
      "干": 1427,
      "平": 1428,
      "年": 1429,
      "并": 1430,
      "幸": 1431,
      "幹": 1432,
      "幻": 1433,
      "幼": 1434,
      "幽": 1435,
      "幾": 1436,
      "广": 1437,
      "庄": 1438,
      "庆": 1439,
      "庇": 1440,
      "床": 1441,
      "序": 1442,
      "库": 1443,
      "应": 1444,
      "底": 1445,
      "店": 1446,
      "庙": 1447,
      "府": 1448,
      "庞": 1449,
      "废": 1450,
      "度": 1451,
      "座": 1452,
      "庫": 1453,
      "庭": 1454,
      "康": 1455,
      "庸": 1456,
      "廁": 1457,
      "廉": 1458,
      "廊": 1459,
      "廚": 1460,
      "廢": 1461,
      "廳": 1462,
      "延": 1463,
      "廷": 1464,
      "建": 1465,
      "开": 1466,
      "异": 1467,
      "弃": 1468,
      "弄": 1469,
      "弊": 1470,
      "式": 1471,
      "弑": 1472,
      "弓": 1473,
      "引": 1474,
      "弗": 1475,
      "弘": 1476,
      "弛": 1477,
      "弟": 1478,
      "张": 1479,
      "弥": 1480,
      "弦": 1481,
      "弧": 1482,
      "弭": 1483,
      "弯": 1484,
      "弱": 1485,
      "張": 1486,
      "強": 1487,
      "弹": 1488,
      "强": 1489,
      "归": 1490,
      "当": 1491,
      "录": 1492,
      "彗": 1493,
      "形": 1494,
      "彩": 1495,
      "彭": 1496,
      "彰": 1497,
      "影": 1498,
      "役": 1499,
      "彻": 1500,
      "彼": 1501,
      "往": 1502,
      "征": 1503,
      "径": 1504,
      "待": 1505,
      "很": 1506,
      "徊": 1507,
      "律": 1508,
      "後": 1509,
      "徐": 1510,
      "徒": 1511,
      "得": 1512,
      "徘": 1513,
      "徙": 1514,
      "從": 1515,
      "御": 1516,
      "復": 1517,
      "循": 1518,
      "微": 1519,
      "德": 1520,
      "徹": 1521,
      "徽": 1522,
      "心": 1523,
      "必": 1524,
      "忆": 1525,
      "忌": 1526,
      "忍": 1527,
      "忏": 1528,
      "忒": 1529,
      "志": 1530,
      "忘": 1531,
      "忙": 1532,
      "忠": 1533,
      "忧": 1534,
      "快": 1535,
      "忭": 1536,
      "忱": 1537,
      "念": 1538,
      "忽": 1539,
      "怀": 1540,
      "态": 1541,
      "怎": 1542,
      "怒": 1543,
      "怕": 1544,
      "怖": 1545,
      "怜": 1546,
      "思": 1547,
      "急": 1548,
      "性": 1549,
      "怨": 1550,
      "怪": 1551,
      "总": 1552,
      "恅": 1553,
      "恋": 1554,
      "恐": 1555,
      "恒": 1556,
      "恕": 1557,
      "恢": 1558,
      "恤": 1559,
      "恨": 1560,
      "恩": 1561,
      "恪": 1562,
      "恫": 1563,
      "恬": 1564,
      "恭": 1565,
      "息": 1566,
      "恰": 1567,
      "恳": 1568,
      "恶": 1569,
      "恼": 1570,
      "悄": 1571,
      "悅": 1572,
      "悉": 1573,
      "悔": 1574,
      "悖": 1575,
      "悟": 1576,
      "悠": 1577,
      "患": 1578,
      "悦": 1579,
      "您": 1580,
      "悬": 1581,
      "悯": 1582,
      "悲": 1583,
      "悼": 1584,
      "情": 1585,
      "惊": 1586,
      "惑": 1587,
      "惕": 1588,
      "惜": 1589,
      "惟": 1590,
      "惠": 1591,
      "惡": 1592,
      "惧": 1593,
      "惨": 1594,
      "惩": 1595,
      "惫": 1596,
      "惭": 1597,
      "惯": 1598,
      "想": 1599,
      "惶": 1600,
      "惹": 1601,
      "愁": 1602,
      "愈": 1603,
      "愉": 1604,
      "意": 1605,
      "愚": 1606,
      "愛": 1607,
      "感": 1608,
      "愤": 1609,
      "愧": 1610,
      "愿": 1611,
      "慈": 1612,
      "慌": 1613,
      "慎": 1614,
      "慕": 1615,
      "慘": 1616,
      "慢": 1617,
      "慣": 1618,
      "慧": 1619,
      "慨": 1620,
      "慮": 1621,
      "慰": 1622,
      "慶": 1623,
      "慷": 1624,
      "慾": 1625,
      "憂": 1626,
      "憋": 1627,
      "憎": 1628,
      "憐": 1629,
      "憑": 1630,
      "憶": 1631,
      "憾": 1632,
      "懂": 1633,
      "懇": 1634,
      "懈": 1635,
      "應": 1636,
      "懒": 1637,
      "懦": 1638,
      "懲": 1639,
      "懶": 1640,
      "懷": 1641,
      "懼": 1642,
      "懿": 1643,
      "戀": 1644,
      "戈": 1645,
      "戍": 1646,
      "戏": 1647,
      "成": 1648,
      "我": 1649,
      "戒": 1650,
      "或": 1651,
      "战": 1652,
      "戚": 1653,
      "戟": 1654,
      "截": 1655,
      "戮": 1656,
      "戲": 1657,
      "戳": 1658,
      "戴": 1659,
      "戶": 1660,
      "户": 1661,
      "房": 1662,
      "所": 1663,
      "扁": 1664,
      "扂": 1665,
      "扇": 1666,
      "手": 1667,
      "才": 1668,
      "扎": 1669,
      "扑": 1670,
      "打": 1671,
      "扔": 1672,
      "托": 1673,
      "扛": 1674,
      "扣": 1675,
      "执": 1676,
      "扩": 1677,
      "扫": 1678,
      "扬": 1679,
      "扭": 1680,
      "扮": 1681,
      "扯": 1682,
      "扰": 1683,
      "扳": 1684,
      "扶": 1685,
      "批": 1686,
      "扼": 1687,
      "找": 1688,
      "承": 1689,
      "技": 1690,
      "抄": 1691,
      "把": 1692,
      "抑": 1693,
      "抓": 1694,
      "投": 1695,
      "抖": 1696,
      "抗": 1697,
      "折": 1698,
      "抚": 1699,
      "抛": 1700,
      "抡": 1701,
      "抢": 1702,
      "护": 1703,
      "报": 1704,
      "披": 1705,
      "抬": 1706,
      "抱": 1707,
      "抵": 1708,
      "抹": 1709,
      "押": 1710,
      "抽": 1711,
      "拂": 1712,
      "担": 1713,
      "拆": 1714,
      "拇": 1715,
      "拉": 1716,
      "拌": 1717,
      "拍": 1718,
      "拎": 1719,
      "拐": 1720,
      "拒": 1721,
      "拓": 1722,
      "拔": 1723,
      "拖": 1724,
      "拘": 1725,
      "拙": 1726,
      "招": 1727,
      "拜": 1728,
      "拟": 1729,
      "拣": 1730,
      "拥": 1731,
      "拦": 1732,
      "拧": 1733,
      "拨": 1734,
      "择": 1735,
      "括": 1736,
      "拭": 1737,
      "拮": 1738,
      "拯": 1739,
      "拱": 1740,
      "拳": 1741,
      "拸": 1742,
      "拼": 1743,
      "拽": 1744,
      "拾": 1745,
      "拿": 1746,
      "持": 1747,
      "挂": 1748,
      "指": 1749,
      "按": 1750,
      "挑": 1751,
      "挖": 1752,
      "挚": 1753,
      "挝": 1754,
      "挞": 1755,
      "挟": 1756,
      "挠": 1757,
      "挡": 1758,
      "挣": 1759,
      "挤": 1760,
      "挥": 1761,
      "挨": 1762,
      "挪": 1763,
      "挫": 1764,
      "振": 1765,
      "挺": 1766,
      "挽": 1767,
      "挾": 1768,
      "捆": 1769,
      "捉": 1770,
      "捍": 1771,
      "捏": 1772,
      "捐": 1773,
      "捕": 1774,
      "捞": 1775,
      "损": 1776,
      "捡": 1777,
      "换": 1778,
      "捨": 1779,
      "据": 1780,
      "捷": 1781,
      "掀": 1782,
      "授": 1783,
      "掉": 1784,
      "掌": 1785,
      "排": 1786,
      "掘": 1787,
      "掛": 1788,
      "掠": 1789,
      "探": 1790,
      "接": 1791,
      "控": 1792,
      "推": 1793,
      "掩": 1794,
      "措": 1795,
      "掰": 1796,
      "掷": 1797,
      "揀": 1798,
      "描": 1799,
      "提": 1800,
      "插": 1801,
      "揚": 1802,
      "換": 1803,
      "握": 1804,
      "揩": 1805,
      "揪": 1806,
      "揭": 1807,
      "援": 1808,
      "揽": 1809,
      "搁": 1810,
      "搅": 1811,
      "損": 1812,
      "搏": 1813,
      "搔": 1814,
      "搖": 1815,
      "搗": 1816,
      "搜": 1817,
      "搞": 1818,
      "搬": 1819,
      "搭": 1820,
      "搶": 1821,
      "携": 1822,
      "摁": 1823,
      "摄": 1824,
      "摆": 1825,
      "摇": 1826,
      "摈": 1827,
      "摊": 1828,
      "摔": 1829,
      "摘": 1830,
      "摧": 1831,
      "摩": 1832,
      "摸": 1833,
      "摹": 1834,
      "撑": 1835,
      "撒": 1836,
      "撕": 1837,
      "撞": 1838,
      "撤": 1839,
      "撬": 1840,
      "播": 1841,
      "撮": 1842,
      "撰": 1843,
      "撵": 1844,
      "撼": 1845,
      "撿": 1846,
      "擁": 1847,
      "擅": 1848,
      "擇": 1849,
      "擊": 1850,
      "操": 1851,
      "擎": 1852,
      "擔": 1853,
      "據": 1854,
      "擦": 1855,
      "擱": 1856,
      "擲": 1857,
      "擾": 1858,
      "攏": 1859,
      "攒": 1860,
      "攔": 1861,
      "攝": 1862,
      "攥": 1863,
      "攫": 1864,
      "支": 1865,
      "收": 1866,
      "攸": 1867,
      "改": 1868,
      "攻": 1869,
      "放": 1870,
      "政": 1871,
      "故": 1872,
      "效": 1873,
      "敌": 1874,
      "敏": 1875,
      "救": 1876,
      "敕": 1877,
      "敗": 1878,
      "敘": 1879,
      "教": 1880,
      "敞": 1881,
      "敢": 1882,
      "散": 1883,
      "敦": 1884,
      "敬": 1885,
      "数": 1886,
      "敲": 1887,
      "整": 1888,
      "敵": 1889,
      "敷": 1890,
      "數": 1891,
      "文": 1892,
      "斋": 1893,
      "斐": 1894,
      "斑": 1895,
      "斕": 1896,
      "斗": 1897,
      "料": 1898,
      "斜": 1899,
      "斟": 1900,
      "斡": 1901,
      "斤": 1902,
      "斥": 1903,
      "斧": 1904,
      "斩": 1905,
      "断": 1906,
      "斯": 1907,
      "新": 1908,
      "斷": 1909,
      "方": 1910,
      "於": 1911,
      "施": 1912,
      "旁": 1913,
      "旅": 1914,
      "旋": 1915,
      "族": 1916,
      "旗": 1917,
      "无": 1918,
      "既": 1919,
      "日": 1920,
      "旦": 1921,
      "旧": 1922,
      "旨": 1923,
      "早": 1924,
      "旬": 1925,
      "旱": 1926,
      "时": 1927,
      "旷": 1928,
      "旺": 1929,
      "昂": 1930,
      "昆": 1931,
      "昌": 1932,
      "明": 1933,
      "昏": 1934,
      "易": 1935,
      "昔": 1936,
      "星": 1937,
      "映": 1938,
      "春": 1939,
      "昧": 1940,
      "昨": 1941,
      "昭": 1942,
      "是": 1943,
      "显": 1944,
      "時": 1945,
      "晃": 1946,
      "晋": 1947,
      "晒": 1948,
      "晓": 1949,
      "晕": 1950,
      "晚": 1951,
      "晤": 1952,
      "晨": 1953,
      "普": 1954,
      "景": 1955,
      "晰": 1956,
      "晴": 1957,
      "晶": 1958,
      "智": 1959,
      "暂": 1960,
      "暇": 1961,
      "暈": 1962,
      "暑": 1963,
      "暖": 1964,
      "暗": 1965,
      "暨": 1966,
      "暫": 1967,
      "暴": 1968,
      "暹": 1969,
      "曉": 1970,
      "曙": 1971,
      "曝": 1972,
      "曦": 1973,
      "曲": 1974,
      "更": 1975,
      "書": 1976,
      "曹": 1977,
      "曼": 1978,
      "曾": 1979,
      "替": 1980,
      "最": 1981,
      "會": 1982,
      "月": 1983,
      "有": 1984,
      "朋": 1985,
      "服": 1986,
      "朕": 1987,
      "朗": 1988,
      "望": 1989,
      "朝": 1990,
      "期": 1991,
      "木": 1992,
      "未": 1993,
      "末": 1994,
      "本": 1995,
      "朮": 1996,
      "术": 1997,
      "朱": 1998,
      "朴": 1999,
      "朵": 2000,
      "机": 2001,
      "朽": 2002,
      "杀": 2003,
      "杂": 2004,
      "权": 2005,
      "杅": 2006,
      "杆": 2007,
      "杉": 2008,
      "李": 2009,
      "杏": 2010,
      "材": 2011,
      "村": 2012,
      "杜": 2013,
      "杞": 2014,
      "束": 2015,
      "杠": 2016,
      "条": 2017,
      "来": 2018,
      "杨": 2019,
      "杯": 2020,
      "杰": 2021,
      "東": 2022,
      "松": 2023,
      "板": 2024,
      "极": 2025,
      "构": 2026,
      "枉": 2027,
      "析": 2028,
      "林": 2029,
      "枚": 2030,
      "果": 2031,
      "枝": 2032,
      "枢": 2033,
      "枣": 2034,
      "枪": 2035,
      "枭": 2036,
      "枯": 2037,
      "架": 2038,
      "枷": 2039,
      "柁": 2040,
      "柄": 2041,
      "柏": 2042,
      "某": 2043,
      "柑": 2044,
      "染": 2045,
      "柔": 2046,
      "柜": 2047,
      "柠": 2048,
      "查": 2049,
      "柬": 2050,
      "柯": 2051,
      "柱": 2052,
      "柳": 2053,
      "柴": 2054,
      "标": 2055,
      "栈": 2056,
      "栋": 2057,
      "栏": 2058,
      "树": 2059,
      "栖": 2060,
      "栗": 2061,
      "校": 2062,
      "株": 2063,
      "样": 2064,
      "核": 2065,
      "根": 2066,
      "格": 2067,
      "栽": 2068,
      "桀": 2069,
      "桂": 2070,
      "桃": 2071,
      "框": 2072,
      "案": 2073,
      "桌": 2074,
      "桎": 2075,
      "桑": 2076,
      "桔": 2077,
      "档": 2078,
      "桥": 2079,
      "桦": 2080,
      "桩": 2081,
      "桲": 2082,
      "桶": 2083,
      "梁": 2084,
      "梅": 2085,
      "梏": 2086,
      "梗": 2087,
      "條": 2088,
      "梢": 2089,
      "梦": 2090,
      "梧": 2091,
      "梭": 2092,
      "梯": 2093,
      "械": 2094,
      "梳": 2095,
      "梵": 2096,
      "检": 2097,
      "棄": 2098,
      "棉": 2099,
      "棋": 2100,
      "棍": 2101,
      "棒": 2102,
      "棕": 2103,
      "棘": 2104,
      "棚": 2105,
      "棟": 2106,
      "森": 2107,
      "棱": 2108,
      "棵": 2109,
      "棺": 2110,
      "椄": 2111,
      "椅": 2112,
      "植": 2113,
      "椎": 2114,
      "椒": 2115,
      "椰": 2116,
      "楚": 2117,
      "楠": 2118,
      "業": 2119,
      "極": 2120,
      "楷": 2121,
      "楼": 2122,
      "概": 2123,
      "榄": 2124,
      "榅": 2125,
      "榈": 2126,
      "榔": 2127,
      "榜": 2128,
      "榨": 2129,
      "榮": 2130,
      "榴": 2131,
      "榻": 2132,
      "槁": 2133,
      "構": 2134,
      "槌": 2135,
      "槍": 2136,
      "槙": 2137,
      "槛": 2138,
      "槟": 2139,
      "槽": 2140,
      "樁": 2141,
      "樂": 2142,
      "樓": 2143,
      "標": 2144,
      "樟": 2145,
      "模": 2146,
      "樣": 2147,
      "横": 2148,
      "樹": 2149,
      "樺": 2150,
      "橄": 2151,
      "橋": 2152,
      "橙": 2153,
      "機": 2154,
      "橡": 2155,
      "橫": 2156,
      "橱": 2157,
      "檔": 2158,
      "檬": 2159,
      "檯": 2160,
      "權": 2161,
      "欠": 2162,
      "次": 2163,
      "欢": 2164,
      "欣": 2165,
      "欧": 2166,
      "欲": 2167,
      "欸": 2168,
      "欺": 2169,
      "款": 2170,
      "歇": 2171,
      "歉": 2172,
      "歌": 2173,
      "歡": 2174,
      "止": 2175,
      "正": 2176,
      "此": 2177,
      "步": 2178,
      "武": 2179,
      "歧": 2180,
      "歪": 2181,
      "歲": 2182,
      "歷": 2183,
      "歸": 2184,
      "歹": 2185,
      "死": 2186,
      "殃": 2187,
      "殉": 2188,
      "殊": 2189,
      "残": 2190,
      "殒": 2191,
      "殓": 2192,
      "殖": 2193,
      "殘": 2194,
      "殴": 2195,
      "段": 2196,
      "殷": 2197,
      "殺": 2198,
      "殼": 2199,
      "殿": 2200,
      "毀": 2201,
      "毁": 2202,
      "毅": 2203,
      "毋": 2204,
      "母": 2205,
      "每": 2206,
      "毒": 2207,
      "比": 2208,
      "毕": 2209,
      "毗": 2210,
      "毙": 2211,
      "毛": 2212,
      "毡": 2213,
      "毫": 2214,
      "毯": 2215,
      "氏": 2216,
      "民": 2217,
      "氓": 2218,
      "气": 2219,
      "氛": 2220,
      "氟": 2221,
      "氢": 2222,
      "氣": 2223,
      "氧": 2224,
      "氨": 2225,
      "氪": 2226,
      "氮": 2227,
      "氯": 2228,
      "氰": 2229,
      "水": 2230,
      "永": 2231,
      "汀": 2232,
      "汁": 2233,
      "求": 2234,
      "汇": 2235,
      "汉": 2236,
      "汗": 2237,
      "汞": 2238,
      "江": 2239,
      "池": 2240,
      "污": 2241,
      "汤": 2242,
      "汰": 2243,
      "汲": 2244,
      "汶": 2245,
      "決": 2246,
      "汽": 2247,
      "沃": 2248,
      "沉": 2249,
      "沐": 2250,
      "沒": 2251,
      "沙": 2252,
      "沛": 2253,
      "沟": 2254,
      "没": 2255,
      "沥": 2256,
      "沦": 2257,
      "沫": 2258,
      "沮": 2259,
      "河": 2260,
      "沸": 2261,
      "油": 2262,
      "治": 2263,
      "沼": 2264,
      "沾": 2265,
      "沿": 2266,
      "況": 2267,
      "泄": 2268,
      "泉": 2269,
      "泊": 2270,
      "泌": 2271,
      "法": 2272,
      "泛": 2273,
      "泞": 2274,
      "泡": 2275,
      "波": 2276,
      "泣": 2277,
      "泥": 2278,
      "注": 2279,
      "泪": 2280,
      "泰": 2281,
      "泳": 2282,
      "泵": 2283,
      "泷": 2284,
      "泼": 2285,
      "泽": 2286,
      "洁": 2287,
      "洄": 2288,
      "洋": 2289,
      "洒": 2290,
      "洗": 2291,
      "洙": 2292,
      "洛": 2293,
      "洞": 2294,
      "津": 2295,
      "洪": 2296,
      "洱": 2297,
      "洲": 2298,
      "活": 2299,
      "洽": 2300,
      "派": 2301,
      "流": 2302,
      "浅": 2303,
      "浆": 2304,
      "浇": 2305,
      "测": 2306,
      "济": 2307,
      "浏": 2308,
      "浑": 2309,
      "浓": 2310,
      "浣": 2311,
      "浦": 2312,
      "浩": 2313,
      "浪": 2314,
      "浮": 2315,
      "浴": 2316,
      "海": 2317,
      "浸": 2318,
      "涂": 2319,
      "涅": 2320,
      "消": 2321,
      "涉": 2322,
      "涌": 2323,
      "涕": 2324,
      "涛": 2325,
      "涝": 2326,
      "涟": 2327,
      "润": 2328,
      "涨": 2329,
      "涯": 2330,
      "液": 2331,
      "涵": 2332,
      "涼": 2333,
      "淀": 2334,
      "淆": 2335,
      "淋": 2336,
      "淌": 2337,
      "淏": 2338,
      "淘": 2339,
      "淡": 2340,
      "淤": 2341,
      "淨": 2342,
      "淫": 2343,
      "淮": 2344,
      "深": 2345,
      "淳": 2346,
      "混": 2347,
      "淹": 2348,
      "添": 2349,
      "清": 2350,
      "渊": 2351,
      "渎": 2352,
      "渐": 2353,
      "渔": 2354,
      "渗": 2355,
      "減": 2356,
      "渝": 2357,
      "渠": 2358,
      "渡": 2359,
      "渣": 2360,
      "渥": 2361,
      "温": 2362,
      "測": 2363,
      "渭": 2364,
      "港": 2365,
      "渴": 2366,
      "游": 2367,
      "渺": 2368,
      "湄": 2369,
      "湎": 2370,
      "湖": 2371,
      "湧": 2372,
      "湯": 2373,
      "湾": 2374,
      "湿": 2375,
      "溃": 2376,
      "溅": 2377,
      "溉": 2378,
      "源": 2379,
      "準": 2380,
      "溜": 2381,
      "溢": 2382,
      "溪": 2383,
      "溫": 2384,
      "溯": 2385,
      "溴": 2386,
      "溶": 2387,
      "溺": 2388,
      "溼": 2389,
      "滅": 2390,
      "滋": 2391,
      "滑": 2392,
      "滕": 2393,
      "滚": 2394,
      "滞": 2395,
      "满": 2396,
      "滤": 2397,
      "滥": 2398,
      "滨": 2399,
      "滩": 2400,
      "滲": 2401,
      "滴": 2402,
      "滾": 2403,
      "滿": 2404,
      "漂": 2405,
      "漆": 2406,
      "漏": 2407,
      "演": 2408,
      "漠": 2409,
      "漢": 2410,
      "漪": 2411,
      "漫": 2412,
      "漯": 2413,
      "潔": 2414,
      "潘": 2415,
      "潛": 2416,
      "潜": 2417,
      "潮": 2418,
      "澄": 2419,
      "澜": 2420,
      "澡": 2421,
      "澤": 2422,
      "澳": 2423,
      "激": 2424,
      "濒": 2425,
      "濟": 2426,
      "瀑": 2427,
      "灌": 2428,
      "火": 2429,
      "灭": 2430,
      "灯": 2431,
      "灰": 2432,
      "灵": 2433,
      "灶": 2434,
      "災": 2435,
      "灾": 2436,
      "灿": 2437,
      "炉": 2438,
      "炊": 2439,
      "炎": 2440,
      "炒": 2441,
      "炖": 2442,
      "炫": 2443,
      "炮": 2444,
      "炸": 2445,
      "点": 2446,
      "為": 2447,
      "炼": 2448,
      "烂": 2449,
      "烃": 2450,
      "烈": 2451,
      "烊": 2452,
      "烙": 2453,
      "烛": 2454,
      "烟": 2455,
      "烤": 2456,
      "烦": 2457,
      "烧": 2458,
      "烩": 2459,
      "烫": 2460,
      "热": 2461,
      "烷": 2462,
      "烹": 2463,
      "焊": 2464,
      "焕": 2465,
      "焚": 2466,
      "無": 2467,
      "焦": 2468,
      "焰": 2469,
      "然": 2470,
      "煌": 2471,
      "煎": 2472,
      "煙": 2473,
      "煞": 2474,
      "煤": 2475,
      "照": 2476,
      "煩": 2477,
      "煮": 2478,
      "煽": 2479,
      "熄": 2480,
      "熊": 2481,
      "熏": 2482,
      "熔": 2483,
      "熙": 2484,
      "熟": 2485,
      "熨": 2486,
      "熬": 2487,
      "熱": 2488,
      "燃": 2489,
      "燈": 2490,
      "燕": 2491,
      "營": 2492,
      "燥": 2493,
      "燭": 2494,
      "燮": 2495,
      "爆": 2496,
      "爪": 2497,
      "爬": 2498,
      "爭": 2499,
      "爱": 2500,
      "爵": 2501,
      "父": 2502,
      "爷": 2503,
      "爸": 2504,
      "爹": 2505,
      "爽": 2506,
      "爾": 2507,
      "片": 2508,
      "版": 2509,
      "牌": 2510,
      "牒": 2511,
      "牙": 2512,
      "牛": 2513,
      "牟": 2514,
      "牠": 2515,
      "牡": 2516,
      "牢": 2517,
      "牧": 2518,
      "物": 2519,
      "牲": 2520,
      "牵": 2521,
      "特": 2522,
      "牺": 2523,
      "犀": 2524,
      "犊": 2525,
      "犢": 2526,
      "犧": 2527,
      "犬": 2528,
      "犯": 2529,
      "状": 2530,
      "犹": 2531,
      "狂": 2532,
      "狄": 2533,
      "狐": 2534,
      "狗": 2535,
      "狙": 2536,
      "狟": 2537,
      "狠": 2538,
      "狦": 2539,
      "狩": 2540,
      "独": 2541,
      "狭": 2542,
      "狮": 2543,
      "狱": 2544,
      "狶": 2545,
      "狸": 2546,
      "狼": 2547,
      "猌": 2548,
      "猎": 2549,
      "猛": 2550,
      "猜": 2551,
      "猥": 2552,
      "猩": 2553,
      "猪": 2554,
      "猫": 2555,
      "献": 2556,
      "猴": 2557,
      "猶": 2558,
      "獄": 2559,
      "獎": 2560,
      "獨": 2561,
      "獲": 2562,
      "獵": 2563,
      "獸": 2564,
      "獺": 2565,
      "獽": 2566,
      "玂": 2567,
      "玄": 2568,
      "率": 2569,
      "玉": 2570,
      "王": 2571,
      "玙": 2572,
      "玛": 2573,
      "玥": 2574,
      "玩": 2575,
      "玫": 2576,
      "环": 2577,
      "现": 2578,
      "玲": 2579,
      "玷": 2580,
      "玻": 2581,
      "珀": 2582,
      "珂": 2583,
      "珈": 2584,
      "珊": 2585,
      "珍": 2586,
      "珠": 2587,
      "班": 2588,
      "現": 2589,
      "球": 2590,
      "琅": 2591,
      "理": 2592,
      "琌": 2593,
      "琐": 2594,
      "琢": 2595,
      "琩": 2596,
      "琪": 2597,
      "琳": 2598,
      "琴": 2599,
      "琵": 2600,
      "琼": 2601,
      "瑕": 2602,
      "瑙": 2603,
      "瑚": 2604,
      "瑜": 2605,
      "瑞": 2606,
      "瑟": 2607,
      "瑪": 2608,
      "瑰": 2609,
      "瑾": 2610,
      "瑿": 2611,
      "璃": 2612,
      "璣": 2613,
      "環": 2614,
      "璶": 2615,
      "瓁": 2616,
      "瓆": 2617,
      "瓜": 2618,
      "瓢": 2619,
      "瓣": 2620,
      "瓦": 2621,
      "瓳": 2622,
      "瓶": 2623,
      "瓷": 2624,
      "瓿": 2625,
      "甄": 2626,
      "甘": 2627,
      "甚": 2628,
      "甜": 2629,
      "生": 2630,
      "產": 2631,
      "用": 2632,
      "甩": 2633,
      "甫": 2634,
      "田": 2635,
      "由": 2636,
      "甲": 2637,
      "申": 2638,
      "电": 2639,
      "男": 2640,
      "甸": 2641,
      "町": 2642,
      "画": 2643,
      "畅": 2644,
      "畉": 2645,
      "界": 2646,
      "畏": 2647,
      "畐": 2648,
      "畒": 2649,
      "畔": 2650,
      "留": 2651,
      "畜": 2652,
      "畢": 2653,
      "略": 2654,
      "番": 2655,
      "畫": 2656,
      "畴": 2657,
      "當": 2658,
      "疆": 2659,
      "疏": 2660,
      "疑": 2661,
      "疗": 2662,
      "疙": 2663,
      "疚": 2664,
      "疟": 2665,
      "疤": 2666,
      "疫": 2667,
      "疭": 2668,
      "疯": 2669,
      "疲": 2670,
      "疵": 2671,
      "疹": 2672,
      "疼": 2673,
      "疾": 2674,
      "病": 2675,
      "症": 2676,
      "痒": 2677,
      "痕": 2678,
      "痘": 2679,
      "痛": 2680,
      "痨": 2681,
      "痪": 2682,
      "痫": 2683,
      "痰": 2684,
      "痴": 2685,
      "痷": 2686,
      "痹": 2687,
      "痼": 2688,
      "瘀": 2689,
      "瘋": 2690,
      "瘘": 2691,
      "瘟": 2692,
      "瘠": 2693,
      "瘤": 2694,
      "瘦": 2695,
      "瘧": 2696,
      "瘩": 2697,
      "瘫": 2698,
      "瘾": 2699,
      "療": 2700,
      "癌": 2701,
      "癒": 2702,
      "癖": 2703,
      "癠": 2704,
      "癫": 2705,
      "癬": 2706,
      "癱": 2707,
      "癸": 2708,
      "登": 2709,
      "發": 2710,
      "白": 2711,
      "百": 2712,
      "皂": 2713,
      "的": 2714,
      "皆": 2715,
      "皇": 2716,
      "皑": 2717,
      "皮": 2718,
      "皱": 2719,
      "皿": 2720,
      "盆": 2721,
      "盈": 2722,
      "益": 2723,
      "盎": 2724,
      "盏": 2725,
      "盐": 2726,
      "监": 2727,
      "盒": 2728,
      "盔": 2729,
      "盖": 2730,
      "盗": 2731,
      "盘": 2732,
      "盛": 2733,
      "盜": 2734,
      "盟": 2735,
      "盡": 2736,
      "盢": 2737,
      "監": 2738,
      "盧": 2739,
      "目": 2740,
      "盯": 2741,
      "盲": 2742,
      "直": 2743,
      "相": 2744,
      "盾": 2745,
      "盿": 2746,
      "省": 2747,
      "眉": 2748,
      "眊": 2749,
      "看": 2750,
      "眏": 2751,
      "眔": 2752,
      "眖": 2753,
      "真": 2754,
      "眠": 2755,
      "眩": 2756,
      "眶": 2757,
      "眷": 2758,
      "眼": 2759,
      "眾": 2760,
      "着": 2761,
      "睁": 2762,
      "睛": 2763,
      "睡": 2764,
      "督": 2765,
      "睦": 2766,
      "睫": 2767,
      "睬": 2768,
      "睹": 2769,
      "睿": 2770,
      "瞄": 2771,
      "瞌": 2772,
      "瞎": 2773,
      "瞒": 2774,
      "瞦": 2775,
      "瞧": 2776,
      "瞩": 2777,
      "瞬": 2778,
      "瞭": 2779,
      "瞰": 2780,
      "瞳": 2781,
      "瞷": 2782,
      "瞻": 2783,
      "矛": 2784,
      "矜": 2785,
      "矢": 2786,
      "知": 2787,
      "矩": 2788,
      "矫": 2789,
      "短": 2790,
      "石": 2791,
      "矶": 2792,
      "矾": 2793,
      "矿": 2794,
      "码": 2795,
      "砂": 2796,
      "砃": 2797,
      "砆": 2798,
      "砍": 2799,
      "砓": 2800,
      "研": 2801,
      "砖": 2802,
      "砰": 2803,
      "破": 2804,
      "砷": 2805,
      "砸": 2806,
      "础": 2807,
      "硂": 2808,
      "硅": 2809,
      "硔": 2810,
      "硕": 2811,
      "硙": 2812,
      "硝": 2813,
      "硫": 2814,
      "硬": 2815,
      "确": 2816,
      "碌": 2817,
      "碍": 2818,
      "碎": 2819,
      "碑": 2820,
      "碕": 2821,
      "碗": 2822,
      "碞": 2823,
      "碟": 2824,
      "碧": 2825,
      "碰": 2826,
      "碱": 2827,
      "碳": 2828,
      "確": 2829,
      "碿": 2830,
      "磀": 2831,
      "磁": 2832,
      "磅": 2833,
      "磋": 2834,
      "磐": 2835,
      "磨": 2836,
      "磺": 2837,
      "礙": 2838,
      "礚": 2839,
      "礛": 2840,
      "礹": 2841,
      "示": 2842,
      "礼": 2843,
      "社": 2844,
      "祅": 2845,
      "祈": 2846,
      "祉": 2847,
      "祐": 2848,
      "祖": 2849,
      "祝": 2850,
      "神": 2851,
      "祟": 2852,
      "祥": 2853,
      "票": 2854,
      "祭": 2855,
      "祷": 2856,
      "祸": 2857,
      "禁": 2858,
      "禅": 2859,
      "禍": 2860,
      "福": 2861,
      "禗": 2862,
      "禦": 2863,
      "禧": 2864,
      "禮": 2865,
      "禱": 2866,
      "离": 2867,
      "禽": 2868,
      "秀": 2869,
      "私": 2870,
      "秉": 2871,
      "秋": 2872,
      "种": 2873,
      "秏": 2874,
      "科": 2875,
      "秒": 2876,
      "秘": 2877,
      "租": 2878,
      "秨": 2879,
      "秩": 2880,
      "积": 2881,
      "称": 2882,
      "移": 2883,
      "稀": 2884,
      "稅": 2885,
      "程": 2886,
      "稍": 2887,
      "税": 2888,
      "稚": 2889,
      "稣": 2890,
      "種": 2891,
      "稰": 2892,
      "稱": 2893,
      "稲": 2894,
      "稳": 2895,
      "稻": 2896,
      "稼": 2897,
      "稽": 2898,
      "稿": 2899,
      "穀": 2900,
      "穆": 2901,
      "穌": 2902,
      "穗": 2903,
      "穝": 2904,
      "穦": 2905,
      "穩": 2906,
      "穴": 2907,
      "究": 2908,
      "穷": 2909,
      "穹": 2910,
      "空": 2911,
      "穿": 2912,
      "突": 2913,
      "窃": 2914,
      "窄": 2915,
      "窍": 2916,
      "窑": 2917,
      "窗": 2918,
      "窘": 2919,
      "窜": 2920,
      "窝": 2921,
      "窟": 2922,
      "窥": 2923,
      "窮": 2924,
      "竄": 2925,
      "立": 2926,
      "竖": 2927,
      "站": 2928,
      "竜": 2929,
      "竞": 2930,
      "竟": 2931,
      "章": 2932,
      "竡": 2933,
      "竣": 2934,
      "童": 2935,
      "竭": 2936,
      "端": 2937,
      "竹": 2938,
      "竿": 2939,
      "笃": 2940,
      "笆": 2941,
      "笑": 2942,
      "笔": 2943,
      "笛": 2944,
      "符": 2945,
      "笨": 2946,
      "第": 2947,
      "笴": 2948,
      "笵": 2949,
      "笹": 2950,
      "笼": 2951,
      "筁": 2952,
      "筆": 2953,
      "等": 2954,
      "筋": 2955,
      "筏": 2956,
      "筑": 2957,
      "筒": 2958,
      "答": 2959,
      "策": 2960,
      "筛": 2961,
      "筝": 2962,
      "筹": 2963,
      "筽": 2964,
      "签": 2965,
      "筿": 2966,
      "简": 2967,
      "箍": 2968,
      "箎": 2969,
      "算": 2970,
      "管": 2971,
      "箭": 2972,
      "箱": 2973,
      "範": 2974,
      "篇": 2975,
      "築": 2976,
      "篪": 2977,
      "篷": 2978,
      "簀": 2979,
      "簡": 2980,
      "簽": 2981,
      "簿": 2982,
      "籁": 2983,
      "籍": 2984,
      "籔": 2985,
      "籜": 2986,
      "籟": 2987,
      "籠": 2988,
      "籲": 2989,
      "米": 2990,
      "类": 2991,
      "粉": 2992,
      "粒": 2993,
      "粗": 2994,
      "粘": 2995,
      "粟": 2996,
      "粪": 2997,
      "粮": 2998,
      "粹": 2999,
      "精": 3000,
      "粿": 3001,
      "糊": 3002,
      "糔": 3003,
      "糕": 3004,
      "糖": 3005,
      "糙": 3006,
      "糟": 3007,
      "糵": 3008,
      "系": 3009,
      "紀": 3010,
      "約": 3011,
      "紅": 3012,
      "紇": 3013,
      "紈": 3014,
      "紊": 3015,
      "紋": 3016,
      "納": 3017,
      "紐": 3018,
      "純": 3019,
      "紙": 3020,
      "級": 3021,
      "素": 3022,
      "索": 3023,
      "紧": 3024,
      "紫": 3025,
      "累": 3026,
      "終": 3027,
      "組": 3028,
      "絆": 3029,
      "絋": 3030,
      "結": 3031,
      "絕": 3032,
      "絞": 3033,
      "給": 3034,
      "統": 3035,
      "絲": 3036,
      "絶": 3037,
      "綁": 3038,
      "綑": 3039,
      "經": 3040,
      "続": 3041,
      "綠": 3042,
      "維": 3043,
      "網": 3044,
      "綴": 3045,
      "緊": 3046,
      "緓": 3047,
      "線": 3048,
      "緣": 3049,
      "練": 3050,
      "縫": 3051,
      "總": 3052,
      "繁": 3053,
      "織": 3054,
      "繞": 3055,
      "繦": 3056,
      "繫": 3057,
      "繼": 3058,
      "纂": 3059,
      "續": 3060,
      "纏": 3061,
      "纒": 3062,
      "纔": 3063,
      "纠": 3064,
      "红": 3065,
      "纤": 3066,
      "约": 3067,
      "级": 3068,
      "纪": 3069,
      "纬": 3070,
      "纯": 3071,
      "纱": 3072,
      "纲": 3073,
      "纳": 3074,
      "纵": 3075,
      "纷": 3076,
      "纸": 3077,
      "纹": 3078,
      "纺": 3079,
      "纽": 3080,
      "纾": 3081,
      "线": 3082,
      "练": 3083,
      "组": 3084,
      "绅": 3085,
      "细": 3086,
      "织": 3087,
      "终": 3088,
      "绊": 3089,
      "绌": 3090,
      "绍": 3091,
      "经": 3092,
      "绑": 3093,
      "绒": 3094,
      "结": 3095,
      "绕": 3096,
      "绘": 3097,
      "给": 3098,
      "绚": 3099,
      "络": 3100,
      "绝": 3101,
      "绞": 3102,
      "统": 3103,
      "继": 3104,
      "绩": 3105,
      "绪": 3106,
      "续": 3107,
      "绰": 3108,
      "绳": 3109,
      "维": 3110,
      "综": 3111,
      "绿": 3112,
      "缀": 3113,
      "缄": 3114,
      "缅": 3115,
      "缆": 3116,
      "缇": 3117,
      "缉": 3118,
      "缎": 3119,
      "缓": 3120,
      "缔": 3121,
      "编": 3122,
      "缘": 3123,
      "缚": 3124,
      "缜": 3125,
      "缝": 3126,
      "缠": 3127,
      "缤": 3128,
      "缩": 3129,
      "缪": 3130,
      "缭": 3131,
      "缮": 3132,
      "缴": 3133,
      "缸": 3134,
      "缺": 3135,
      "罂": 3136,
      "罄": 3137,
      "罐": 3138,
      "网": 3139,
      "罕": 3140,
      "罖": 3141,
      "罗": 3142,
      "罚": 3143,
      "罢": 3144,
      "罩": 3145,
      "罪": 3146,
      "置": 3147,
      "罰": 3148,
      "署": 3149,
      "羁": 3150,
      "羅": 3151,
      "羊": 3152,
      "美": 3153,
      "羞": 3154,
      "羡": 3155,
      "群": 3156,
      "義": 3157,
      "羽": 3158,
      "翁": 3159,
      "翅": 3160,
      "習": 3161,
      "翔": 3162,
      "翠": 3163,
      "翩": 3164,
      "翰": 3165,
      "翱": 3166,
      "翻": 3167,
      "翼": 3168,
      "耀": 3169,
      "老": 3170,
      "考": 3171,
      "者": 3172,
      "而": 3173,
      "耍": 3174,
      "耐": 3175,
      "耕": 3176,
      "耗": 3177,
      "耳": 3178,
      "耶": 3179,
      "耻": 3180,
      "耽": 3181,
      "耿": 3182,
      "聆": 3183,
      "聊": 3184,
      "聋": 3185,
      "职": 3186,
      "联": 3187,
      "聖": 3188,
      "聘": 3189,
      "聚": 3190,
      "聞": 3191,
      "聩": 3192,
      "聪": 3193,
      "聯": 3194,
      "聰": 3195,
      "聲": 3196,
      "聽": 3197,
      "聾": 3198,
      "肃": 3199,
      "肆": 3200,
      "肇": 3201,
      "肉": 3202,
      "肌": 3203,
      "肓": 3204,
      "肖": 3205,
      "肘": 3206,
      "肚": 3207,
      "肛": 3208,
      "肝": 3209,
      "肠": 3210,
      "股": 3211,
      "肢": 3212,
      "肤": 3213,
      "肥": 3214,
      "肩": 3215,
      "肪": 3216,
      "肮": 3217,
      "肯": 3218,
      "育": 3219,
      "肺": 3220,
      "肾": 3221,
      "肿": 3222,
      "胀": 3223,
      "胁": 3224,
      "胃": 3225,
      "胄": 3226,
      "胆": 3227,
      "背": 3228,
      "胎": 3229,
      "胔": 3230,
      "胖": 3231,
      "胜": 3232,
      "胞": 3233,
      "胡": 3234,
      "胱": 3235,
      "胳": 3236,
      "胶": 3237,
      "胸": 3238,
      "胺": 3239,
      "能": 3240,
      "脂": 3241,
      "脅": 3242,
      "脆": 3243,
      "脉": 3244,
      "脊": 3245,
      "脏": 3246,
      "脑": 3247,
      "脖": 3248,
      "脚": 3249,
      "脫": 3250,
      "脱": 3251,
      "脸": 3252,
      "脾": 3253,
      "腀": 3254,
      "腊": 3255,
      "腐": 3256,
      "腔": 3257,
      "腕": 3258,
      "腞": 3259,
      "腥": 3260,
      "腦": 3261,
      "腫": 3262,
      "腰": 3263,
      "腳": 3264,
      "腸": 3265,
      "腹": 3266,
      "腺": 3267,
      "腾": 3268,
      "腿": 3269,
      "膀": 3270,
      "膊": 3271,
      "膏": 3272,
      "膚": 3273,
      "膛": 3274,
      "膜": 3275,
      "膝": 3276,
      "膨": 3277,
      "膽": 3278,
      "臀": 3279,
      "臂": 3280,
      "臉": 3281,
      "臘": 3282,
      "臟": 3283,
      "臣": 3284,
      "臨": 3285,
      "臩": 3286,
      "自": 3287,
      "臭": 3288,
      "至": 3289,
      "致": 3290,
      "臺": 3291,
      "舅": 3292,
      "舆": 3293,
      "與": 3294,
      "興": 3295,
      "舉": 3296,
      "舊": 3297,
      "舌": 3298,
      "舍": 3299,
      "舒": 3300,
      "舔": 3301,
      "舞": 3302,
      "舟": 3303,
      "航": 3304,
      "般": 3305,
      "舰": 3306,
      "舱": 3307,
      "舶": 3308,
      "船": 3309,
      "艇": 3310,
      "艘": 3311,
      "艙": 3312,
      "良": 3313,
      "艰": 3314,
      "艱": 3315,
      "色": 3316,
      "艳": 3317,
      "艺": 3318,
      "艾": 3319,
      "节": 3320,
      "芒": 3321,
      "芙": 3322,
      "芜": 3323,
      "芝": 3324,
      "芥": 3325,
      "芦": 3326,
      "芬": 3327,
      "芭": 3328,
      "芯": 3329,
      "花": 3330,
      "芳": 3331,
      "芴": 3332,
      "苇": 3333,
      "苍": 3334,
      "苏": 3335,
      "苔": 3336,
      "苗": 3337,
      "苛": 3338,
      "苞": 3339,
      "苟": 3340,
      "若": 3341,
      "苦": 3342,
      "苯": 3343,
      "英": 3344,
      "苹": 3345,
      "茂": 3346,
      "范": 3347,
      "茄": 3348,
      "茅": 3349,
      "茜": 3350,
      "茧": 3351,
      "茨": 3352,
      "茫": 3353,
      "茬": 3354,
      "茱": 3355,
      "茲": 3356,
      "茴": 3357,
      "茵": 3358,
      "茶": 3359,
      "茸": 3360,
      "茹": 3361,
      "荆": 3362,
      "草": 3363,
      "荐": 3364,
      "荒": 3365,
      "荡": 3366,
      "荣": 3367,
      "荧": 3368,
      "药": 3369,
      "荷": 3370,
      "荻": 3371,
      "荽": 3372,
      "莉": 3373,
      "莎": 3374,
      "莓": 3375,
      "莫": 3376,
      "莱": 3377,
      "莲": 3378,
      "获": 3379,
      "莺": 3380,
      "菁": 3381,
      "菇": 3382,
      "菊": 3383,
      "菌": 3384,
      "菜": 3385,
      "菠": 3386,
      "華": 3387,
      "菱": 3388,
      "菲": 3389,
      "萃": 3390,
      "萄": 3391,
      "萇": 3392,
      "萊": 3393,
      "萌": 3394,
      "萎": 3395,
      "萝": 3396,
      "萤": 3397,
      "营": 3398,
      "萧": 3399,
      "萨": 3400,
      "萬": 3401,
      "萸": 3402,
      "落": 3403,
      "葉": 3404,
      "著": 3405,
      "葛": 3406,
      "葡": 3407,
      "董": 3408,
      "葬": 3409,
      "葱": 3410,
      "葵": 3411,
      "蒂": 3412,
      "蒋": 3413,
      "蒙": 3414,
      "蒜": 3415,
      "蒲": 3416,
      "蒸": 3417,
      "蒿": 3418,
      "蓄": 3419,
      "蓉": 3420,
      "蓓": 3421,
      "蓝": 3422,
      "蓬": 3423,
      "蔑": 3424,
      "蔓": 3425,
      "蔚": 3426,
      "蔥": 3427,
      "蔬": 3428,
      "蔻": 3429,
      "蔼": 3430,
      "蔽": 3431,
      "蕃": 3432,
      "蕉": 3433,
      "蕊": 3434,
      "蕩": 3435,
      "蕭": 3436,
      "蕴": 3437,
      "蕾": 3438,
      "薄": 3439,
      "薇": 3440,
      "薛": 3441,
      "薩": 3442,
      "薪": 3443,
      "薯": 3444,
      "薰": 3445,
      "藉": 3446,
      "藏": 3447,
      "藓": 3448,
      "藝": 3449,
      "藤": 3450,
      "藥": 3451,
      "藻": 3452,
      "蘇": 3453,
      "蘋": 3454,
      "蘑": 3455,
      "蘭": 3456,
      "蘿": 3457,
      "虎": 3458,
      "虏": 3459,
      "虐": 3460,
      "虑": 3461,
      "虔": 3462,
      "處": 3463,
      "虚": 3464,
      "虛": 3465,
      "號": 3466,
      "虧": 3467,
      "虫": 3468,
      "虱": 3469,
      "虹": 3470,
      "虽": 3471,
      "虾": 3472,
      "蚀": 3473,
      "蚁": 3474,
      "蚂": 3475,
      "蚊": 3476,
      "蚚": 3477,
      "蚤": 3478,
      "蛁": 3479,
      "蛆": 3480,
      "蛇": 3481,
      "蛊": 3482,
      "蛋": 3483,
      "蛎": 3484,
      "蛙": 3485,
      "蛤": 3486,
      "蛮": 3487,
      "蛾": 3488,
      "蜀": 3489,
      "蜂": 3490,
      "蜆": 3491,
      "蜗": 3492,
      "蜜": 3493,
      "蜡": 3494,
      "蜥": 3495,
      "蜴": 3496,
      "蝇": 3497,
      "蝎": 3498,
      "蝚": 3499,
      "蝴": 3500,
      "蝶": 3501,
      "螃": 3502,
      "融": 3503,
      "螠": 3504,
      "螤": 3505,
      "螯": 3506,
      "螺": 3507,
      "蟀": 3508,
      "蟋": 3509,
      "蟹": 3510,
      "蟺": 3511,
      "蟻": 3512,
      "蟼": 3513,
      "蟿": 3514,
      "蠀": 3515,
      "蠅": 3516,
      "蠈": 3517,
      "蠋": 3518,
      "蠕": 3519,
      "蠢": 3520,
      "血": 3521,
      "衅": 3522,
      "行": 3523,
      "衍": 3524,
      "術": 3525,
      "衔": 3526,
      "街": 3527,
      "衛": 3528,
      "衡": 3529,
      "衣": 3530,
      "补": 3531,
      "表": 3532,
      "衫": 3533,
      "衬": 3534,
      "衰": 3535,
      "衷": 3536,
      "袋": 3537,
      "袍": 3538,
      "袒": 3539,
      "袖": 3540,
      "被": 3541,
      "袭": 3542,
      "袱": 3543,
      "裁": 3544,
      "裂": 3545,
      "装": 3546,
      "裋": 3547,
      "裏": 3548,
      "裔": 3549,
      "裕": 3550,
      "裘": 3551,
      "裙": 3552,
      "補": 3553,
      "裝": 3554,
      "裡": 3555,
      "裤": 3556,
      "裨": 3557,
      "裴": 3558,
      "裸": 3559,
      "裹": 3560,
      "製": 3561,
      "褐": 3562,
      "褪": 3563,
      "褫": 3564,
      "褲": 3565,
      "襪": 3566,
      "襲": 3567,
      "西": 3568,
      "要": 3569,
      "覆": 3570,
      "見": 3571,
      "規": 3572,
      "視": 3573,
      "親": 3574,
      "覺": 3575,
      "觀": 3576,
      "见": 3577,
      "观": 3578,
      "规": 3579,
      "觅": 3580,
      "视": 3581,
      "览": 3582,
      "觉": 3583,
      "角": 3584,
      "解": 3585,
      "触": 3586,
      "言": 3587,
      "計": 3588,
      "訊": 3589,
      "討": 3590,
      "訓": 3591,
      "託": 3592,
      "記": 3593,
      "訝": 3594,
      "訪": 3595,
      "設": 3596,
      "許": 3597,
      "訴": 3598,
      "証": 3599,
      "詐": 3600,
      "評": 3601,
      "詞": 3602,
      "試": 3603,
      "詪": 3604,
      "話": 3605,
      "該": 3606,
      "詳": 3607,
      "詹": 3608,
      "誇": 3609,
      "誉": 3610,
      "認": 3611,
      "誓": 3612,
      "誕": 3613,
      "語": 3614,
      "誠": 3615,
      "誤": 3616,
      "誦": 3617,
      "誨": 3618,
      "說": 3619,
      "誰": 3620,
      "課": 3621,
      "調": 3622,
      "談": 3623,
      "請": 3624,
      "諒": 3625,
      "論": 3626,
      "諸": 3627,
      "諾": 3628,
      "謀": 3629,
      "謊": 3630,
      "講": 3631,
      "謝": 3632,
      "謹": 3633,
      "證": 3634,
      "識": 3635,
      "警": 3636,
      "譬": 3637,
      "議": 3638,
      "譴": 3639,
      "護": 3640,
      "讀": 3641,
      "變": 3642,
      "讓": 3643,
      "讚": 3644,
      "计": 3645,
      "订": 3646,
      "认": 3647,
      "讨": 3648,
      "让": 3649,
      "讪": 3650,
      "训": 3651,
      "议": 3652,
      "讯": 3653,
      "记": 3654,
      "讲": 3655,
      "讳": 3656,
      "讶": 3657,
      "许": 3658,
      "论": 3659,
      "讼": 3660,
      "讽": 3661,
      "设": 3662,
      "访": 3663,
      "诀": 3664,
      "证": 3665,
      "评": 3666,
      "诅": 3667,
      "识": 3668,
      "诈": 3669,
      "诉": 3670,
      "诊": 3671,
      "词": 3672,
      "译": 3673,
      "试": 3674,
      "诗": 3675,
      "诘": 3676,
      "诚": 3677,
      "诛": 3678,
      "话": 3679,
      "诞": 3680,
      "诠": 3681,
      "诡": 3682,
      "询": 3683,
      "该": 3684,
      "详": 3685,
      "诫": 3686,
      "诬": 3687,
      "语": 3688,
      "误": 3689,
      "诱": 3690,
      "诲": 3691,
      "说": 3692,
      "诵": 3693,
      "请": 3694,
      "诸": 3695,
      "诺": 3696,
      "读": 3697,
      "诽": 3698,
      "课": 3699,
      "谁": 3700,
      "调": 3701,
      "谄": 3702,
      "谅": 3703,
      "谈": 3704,
      "谊": 3705,
      "谋": 3706,
      "谍": 3707,
      "谎": 3708,
      "谐": 3709,
      "谓": 3710,
      "谕": 3711,
      "谙": 3712,
      "谜": 3713,
      "谟": 3714,
      "谢": 3715,
      "谣": 3716,
      "谤": 3717,
      "谦": 3718,
      "谧": 3719,
      "谨": 3720,
      "谩": 3721,
      "谬": 3722,
      "谱": 3723,
      "谴": 3724,
      "谷": 3725,
      "豁": 3726,
      "豆": 3727,
      "豐": 3728,
      "豖": 3729,
      "豚": 3730,
      "象": 3731,
      "豪": 3732,
      "豫": 3733,
      "豬": 3734,
      "豹": 3735,
      "貌": 3736,
      "貝": 3737,
      "負": 3738,
      "財": 3739,
      "貧": 3740,
      "貨": 3741,
      "責": 3742,
      "貴": 3743,
      "買": 3744,
      "費": 3745,
      "貼": 3746,
      "賀": 3747,
      "賂": 3748,
      "賄": 3749,
      "資": 3750,
      "賜": 3751,
      "賞": 3752,
      "賢": 3753,
      "賣": 3754,
      "賦": 3755,
      "質": 3756,
      "賽": 3757,
      "贊": 3758,
      "贏": 3759,
      "贝": 3760,
      "贞": 3761,
      "负": 3762,
      "贡": 3763,
      "财": 3764,
      "责": 3765,
      "贤": 3766,
      "败": 3767,
      "账": 3768,
      "货": 3769,
      "质": 3770,
      "贩": 3771,
      "贪": 3772,
      "贫": 3773,
      "贬": 3774,
      "购": 3775,
      "贮": 3776,
      "贯": 3777,
      "贱": 3778,
      "贴": 3779,
      "贵": 3780,
      "贷": 3781,
      "贸": 3782,
      "费": 3783,
      "贺": 3784,
      "贼": 3785,
      "贾": 3786,
      "贿": 3787,
      "赁": 3788,
      "赂": 3789,
      "资": 3790,
      "赈": 3791,
      "赋": 3792,
      "赌": 3793,
      "赎": 3794,
      "赏": 3795,
      "赐": 3796,
      "赔": 3797,
      "赖": 3798,
      "赘": 3799,
      "赚": 3800,
      "赛": 3801,
      "赝": 3802,
      "赞": 3803,
      "赠": 3804,
      "赡": 3805,
      "赢": 3806,
      "赤": 3807,
      "赦": 3808,
      "赫": 3809,
      "走": 3810,
      "赴": 3811,
      "赵": 3812,
      "赶": 3813,
      "起": 3814,
      "赽": 3815,
      "趁": 3816,
      "超": 3817,
      "越": 3818,
      "趋": 3819,
      "趕": 3820,
      "趟": 3821,
      "趣": 3822,
      "趨": 3823,
      "足": 3824,
      "趴": 3825,
      "趾": 3826,
      "跃": 3827,
      "跋": 3828,
      "跌": 3829,
      "跑": 3830,
      "跘": 3831,
      "距": 3832,
      "跟": 3833,
      "跡": 3834,
      "跨": 3835,
      "跪": 3836,
      "路": 3837,
      "跳": 3838,
      "践": 3839,
      "踏": 3840,
      "踢": 3841,
      "踩": 3842,
      "踪": 3843,
      "踵": 3844,
      "踹": 3845,
      "蹈": 3846,
      "蹊": 3847,
      "蹟": 3848,
      "蹦": 3849,
      "蹭": 3850,
      "蹲": 3851,
      "躁": 3852,
      "躉": 3853,
      "躍": 3854,
      "身": 3855,
      "躬": 3856,
      "躯": 3857,
      "躲": 3858,
      "躺": 3859,
      "車": 3860,
      "軍": 3861,
      "軒": 3862,
      "較": 3863,
      "載": 3864,
      "輕": 3865,
      "輛": 3866,
      "輪": 3867,
      "輸": 3868,
      "轉": 3869,
      "车": 3870,
      "轨": 3871,
      "转": 3872,
      "轮": 3873,
      "软": 3874,
      "轰": 3875,
      "轴": 3876,
      "轶": 3877,
      "轻": 3878,
      "载": 3879,
      "轿": 3880,
      "较": 3881,
      "辄": 3882,
      "辅": 3883,
      "辆": 3884,
      "辈": 3885,
      "辉": 3886,
      "辍": 3887,
      "辐": 3888,
      "辑": 3889,
      "输": 3890,
      "辖": 3891,
      "辗": 3892,
      "辙": 3893,
      "辛": 3894,
      "辜": 3895,
      "辞": 3896,
      "辟": 3897,
      "辣": 3898,
      "辦": 3899,
      "辨": 3900,
      "辩": 3901,
      "辭": 3902,
      "辯": 3903,
      "辰": 3904,
      "辱": 3905,
      "農": 3906,
      "边": 3907,
      "辽": 3908,
      "达": 3909,
      "迁": 3910,
      "迄": 3911,
      "迅": 3912,
      "过": 3913,
      "迈": 3914,
      "迎": 3915,
      "运": 3916,
      "近": 3917,
      "返": 3918,
      "还": 3919,
      "这": 3920,
      "进": 3921,
      "远": 3922,
      "违": 3923,
      "连": 3924,
      "迟": 3925,
      "迥": 3926,
      "迦": 3927,
      "迪": 3928,
      "迫": 3929,
      "迭": 3930,
      "述": 3931,
      "迴": 3932,
      "迷": 3933,
      "迹": 3934,
      "追": 3935,
      "退": 3936,
      "送": 3937,
      "适": 3938,
      "逃": 3939,
      "逆": 3940,
      "选": 3941,
      "逊": 3942,
      "逍": 3943,
      "透": 3944,
      "逐": 3945,
      "递": 3946,
      "途": 3947,
      "逗": 3948,
      "這": 3949,
      "通": 3950,
      "逛": 3951,
      "逝": 3952,
      "逞": 3953,
      "速": 3954,
      "造": 3955,
      "逢": 3956,
      "連": 3957,
      "逮": 3958,
      "週": 3959,
      "進": 3960,
      "逸": 3961,
      "逻": 3962,
      "逼": 3963,
      "逾": 3964,
      "遁": 3965,
      "遂": 3966,
      "遇": 3967,
      "遊": 3968,
      "運": 3969,
      "遍": 3970,
      "過": 3971,
      "遏": 3972,
      "道": 3973,
      "達": 3974,
      "違": 3975,
      "遗": 3976,
      "遛": 3977,
      "遠": 3978,
      "遣": 3979,
      "遥": 3980,
      "遭": 3981,
      "遮": 3982,
      "遲": 3983,
      "遵": 3984,
      "選": 3985,
      "遺": 3986,
      "遽": 3987,
      "避": 3988,
      "邀": 3989,
      "還": 3990,
      "邊": 3991,
      "邑": 3992,
      "邓": 3993,
      "那": 3994,
      "邦": 3995,
      "邪": 3996,
      "邮": 3997,
      "邸": 3998,
      "邻": 3999,
      "郁": 4000,
      "郊": 4001,
      "郎": 4002,
      "郑": 4003,
      "郞": 4004,
      "郡": 4005,
      "部": 4006,
      "郴": 4007,
      "郵": 4008,
      "都": 4009,
      "鄔": 4010,
      "鄙": 4011,
      "鄰": 4012,
      "酋": 4013,
      "酌": 4014,
      "配": 4015,
      "酒": 4016,
      "酗": 4017,
      "酚": 4018,
      "酪": 4019,
      "酬": 4020,
      "酮": 4021,
      "酱": 4022,
      "酵": 4023,
      "酶": 4024,
      "酷": 4025,
      "酸": 4026,
      "酿": 4027,
      "醇": 4028,
      "醉": 4029,
      "醋": 4030,
      "醒": 4031,
      "醚": 4032,
      "醛": 4033,
      "醫": 4034,
      "醬": 4035,
      "醴": 4036,
      "醺": 4037,
      "采": 4038,
      "释": 4039,
      "釋": 4040,
      "里": 4041,
      "重": 4042,
      "野": 4043,
      "量": 4044,
      "金": 4045,
      "鈴": 4046,
      "鈾": 4047,
      "鉴": 4048,
      "銀": 4049,
      "銅": 4050,
      "銘": 4051,
      "鋸": 4052,
      "錄": 4053,
      "錢": 4054,
      "錯": 4055,
      "鍋": 4056,
      "鎖": 4057,
      "鎘": 4058,
      "鎧": 4059,
      "鎮": 4060,
      "鏘": 4061,
      "鏡": 4062,
      "鏢": 4063,
      "鐘": 4064,
      "鐵": 4065,
      "鑒": 4066,
      "鑰": 4067,
      "针": 4068,
      "钉": 4069,
      "钓": 4070,
      "钚": 4071,
      "钞": 4072,
      "钟": 4073,
      "钢": 4074,
      "钥": 4075,
      "钦": 4076,
      "钧": 4077,
      "钩": 4078,
      "钮": 4079,
      "钱": 4080,
      "钳": 4081,
      "钻": 4082,
      "铀": 4083,
      "铁": 4084,
      "铃": 4085,
      "铅": 4086,
      "铆": 4087,
      "铎": 4088,
      "铐": 4089,
      "铛": 4090,
      "铜": 4091,
      "铝": 4092,
      "铬": 4093,
      "铭": 4094,
      "铲": 4095,
      "银": 4096,
      "铸": 4097,
      "铺": 4098,
      "链": 4099,
      "销": 4100,
      "锁": 4101,
      "锂": 4102,
      "锄": 4103,
      "锅": 4104,
      "锈": 4105,
      "锋": 4106,
      "锐": 4107,
      "锒": 4108,
      "错": 4109,
      "锡": 4110,
      "锤": 4111,
      "锥": 4112,
      "锦": 4113,
      "键": 4114,
      "锯": 4115,
      "锵": 4116,
      "锻": 4117,
      "镇": 4118,
      "镊": 4119,
      "镑": 4120,
      "镓": 4121,
      "镜": 4122,
      "镣": 4123,
      "镳": 4124,
      "镶": 4125,
      "長": 4126,
      "长": 4127,
      "門": 4128,
      "閃": 4129,
      "閉": 4130,
      "開": 4131,
      "閒": 4132,
      "間": 4133,
      "闖": 4134,
      "關": 4135,
      "闡": 4136,
      "门": 4137,
      "闪": 4138,
      "闭": 4139,
      "问": 4140,
      "闯": 4141,
      "闲": 4142,
      "间": 4143,
      "闷": 4144,
      "闹": 4145,
      "闺": 4146,
      "闻": 4147,
      "阀": 4148,
      "阁": 4149,
      "阅": 4150,
      "阉": 4151,
      "阐": 4152,
      "阔": 4153,
      "队": 4154,
      "阡": 4155,
      "阱": 4156,
      "防": 4157,
      "阳": 4158,
      "阴": 4159,
      "阵": 4160,
      "阶": 4161,
      "阻": 4162,
      "阿": 4163,
      "陀": 4164,
      "附": 4165,
      "际": 4166,
      "陆": 4167,
      "陈": 4168,
      "陋": 4169,
      "陌": 4170,
      "降": 4171,
      "限": 4172,
      "陑": 4173,
      "陛": 4174,
      "陡": 4175,
      "院": 4176,
      "除": 4177,
      "险": 4178,
      "陪": 4179,
      "陰": 4180,
      "陳": 4181,
      "陵": 4182,
      "陶": 4183,
      "陷": 4184,
      "陸": 4185,
      "陽": 4186,
      "隆": 4187,
      "隊": 4188,
      "階": 4189,
      "随": 4190,
      "隐": 4191,
      "隔": 4192,
      "隘": 4193,
      "際": 4194,
      "障": 4195,
      "隧": 4196,
      "隨": 4197,
      "險": 4198,
      "隱": 4199,
      "隶": 4200,
      "隸": 4201,
      "隼": 4202,
      "难": 4203,
      "雀": 4204,
      "雁": 4205,
      "雄": 4206,
      "雅": 4207,
      "集": 4208,
      "雇": 4209,
      "雌": 4210,
      "雏": 4211,
      "雕": 4212,
      "雖": 4213,
      "雙": 4214,
      "雞": 4215,
      "離": 4216,
      "難": 4217,
      "雨": 4218,
      "雪": 4219,
      "雲": 4220,
      "零": 4221,
      "雷": 4222,
      "電": 4223,
      "雾": 4224,
      "需": 4225,
      "震": 4226,
      "霉": 4227,
      "霍": 4228,
      "霓": 4229,
      "霜": 4230,
      "霞": 4231,
      "露": 4232,
      "霸": 4233,
      "靈": 4234,
      "青": 4235,
      "靖": 4236,
      "静": 4237,
      "靜": 4238,
      "非": 4239,
      "靠": 4240,
      "靡": 4241,
      "面": 4242,
      "革": 4243,
      "靴": 4244,
      "靶": 4245,
      "鞋": 4246,
      "鞠": 4247,
      "鞭": 4248,
      "韋": 4249,
      "韦": 4250,
      "韩": 4251,
      "音": 4252,
      "韵": 4253,
      "響": 4254,
      "頂": 4255,
      "項": 4256,
      "順": 4257,
      "須": 4258,
      "頌": 4259,
      "預": 4260,
      "頓": 4261,
      "頗": 4262,
      "領": 4263,
      "頭": 4264,
      "題": 4265,
      "顏": 4266,
      "願": 4267,
      "類": 4268,
      "顧": 4269,
      "顯": 4270,
      "顱": 4271,
      "页": 4272,
      "顶": 4273,
      "项": 4274,
      "顺": 4275,
      "须": 4276,
      "顽": 4277,
      "顾": 4278,
      "顿": 4279,
      "颁": 4280,
      "颂": 4281,
      "预": 4282,
      "领": 4283,
      "颇": 4284,
      "颈": 4285,
      "颊": 4286,
      "频": 4287,
      "颓": 4288,
      "颗": 4289,
      "题": 4290,
      "颜": 4291,
      "额": 4292,
      "颠": 4293,
      "風": 4294,
      "风": 4295,
      "飓": 4296,
      "飘": 4297,
      "飙": 4298,
      "飛": 4299,
      "飞": 4300,
      "食": 4301,
      "飯": 4302,
      "養": 4303,
      "餐": 4304,
      "餓": 4305,
      "餘": 4306,
      "館": 4307,
      "饒": 4308,
      "饥": 4309,
      "饨": 4310,
      "饪": 4311,
      "饭": 4312,
      "饮": 4313,
      "饯": 4314,
      "饰": 4315,
      "饱": 4316,
      "饲": 4317,
      "饶": 4318,
      "饺": 4319,
      "饼": 4320,
      "饿": 4321,
      "馄": 4322,
      "馅": 4323,
      "馆": 4324,
      "馈": 4325,
      "馊": 4326,
      "馑": 4327,
      "首": 4328,
      "香": 4329,
      "馨": 4330,
      "馬": 4331,
      "駁": 4332,
      "駐": 4333,
      "駛": 4334,
      "騙": 4335,
      "驅": 4336,
      "驗": 4337,
      "驚": 4338,
      "驟": 4339,
      "马": 4340,
      "驭": 4341,
      "驯": 4342,
      "驰": 4343,
      "驱": 4344,
      "驳": 4345,
      "驴": 4346,
      "驶": 4347,
      "驻": 4348,
      "驼": 4349,
      "驾": 4350,
      "骄": 4351,
      "骆": 4352,
      "骇": 4353,
      "验": 4354,
      "骑": 4355,
      "骗": 4356,
      "骚": 4357,
      "骜": 4358,
      "骡": 4359,
      "骤": 4360,
      "骨": 4361,
      "骸": 4362,
      "骼": 4363,
      "髓": 4364,
      "體": 4365,
      "高": 4366,
      "髦": 4367,
      "髮": 4368,
      "鬆": 4369,
      "鬥": 4370,
      "鬼": 4371,
      "魁": 4372,
      "魂": 4373,
      "魄": 4374,
      "魅": 4375,
      "魇": 4376,
      "魏": 4377,
      "魔": 4378,
      "魣": 4379,
      "魯": 4380,
      "鮑": 4381,
      "鮮": 4382,
      "鱼": 4383,
      "鲁": 4384,
      "鲈": 4385,
      "鲍": 4386,
      "鲑": 4387,
      "鲔": 4388,
      "鲜": 4389,
      "鲨": 4390,
      "鲷": 4391,
      "鲸": 4392,
      "鲽": 4393,
      "鳄": 4394,
      "鳍": 4395,
      "鳏": 4396,
      "鳕": 4397,
      "鳗": 4398,
      "鳞": 4399,
      "鳥": 4400,
      "鴃": 4401,
      "鴿": 4402,
      "鵝": 4403,
      "鸟": 4404,
      "鸡": 4405,
      "鸣": 4406,
      "鸦": 4407,
      "鸭": 4408,
      "鸵": 4409,
      "鸽": 4410,
      "鸿": 4411,
      "鹅": 4412,
      "鹉": 4413,
      "鹊": 4414,
      "鹞": 4415,
      "鹣": 4416,
      "鹦": 4417,
      "鹰": 4418,
      "鹿": 4419,
      "麒": 4420,
      "麗": 4421,
      "麟": 4422,
      "麥": 4423,
      "麦": 4424,
      "麻": 4425,
      "麼": 4426,
      "麽": 4427,
      "黄": 4428,
      "黍": 4429,
      "黎": 4430,
      "黑": 4431,
      "默": 4432,
      "黛": 4433,
      "點": 4434,
      "黨": 4435,
      "黩": 4436,
      "鼎": 4437,
      "鼓": 4438,
      "鼠": 4439,
      "鼹": 4440,
      "鼻": 4441,
      "齊": 4442,
      "齋": 4443,
      "齐": 4444,
      "齡": 4445,
      "齿": 4446,
      "龄": 4447,
      "龍": 4448,
      "龙": 4449,
      "龟": 4450,
      "": 4451,
      "": 4452,
      "": 4453,
      "": 4454,
      "": 4455,
      "": 4456,
      "": 4457,
      "": 4458,
      "": 4459,
      "": 4460,
      "": 4461,
      "": 4462,
      "": 4463,
      "": 4464,
      "": 4465,
      "": 4466,
      "": 4467,
      "": 4468,
      "": 4469,
      "": 4470,
      "": 4471,
      "": 4472,
      "": 4473,
      "": 4474,
      "": 4475,
      "": 4476,
      "": 4477,
      "": 4478,
      "": 4479,
      "": 4480,
      "": 4481,
      "": 4482,
      "": 4483,
      "": 4484,
      "": 4485,
      "": 4486,
      "": 4487,
      "": 4488,
      "": 4489,
      "": 4490,
      "": 4491,
      "": 4492,
      "": 4493,
      "": 4494,
      "": 4495,
      "": 4496,
      "": 4497,
      "": 4498,
      "": 4499,
      "": 4500,
      "": 4501,
      "": 4502,
      "": 4503,
      "": 4504,
      "": 4505,
      "": 4506,
      "": 4507,
      "": 4508,
      "": 4509,
      "": 4510,
      "": 4511,
      "": 4512,
      "": 4513,
      "": 4514,
      "": 4515,
      "": 4516,
      "": 4517,
      "": 4518,
      "": 4519,
      "": 4520,
      "": 4521,
      "": 4522,
      "": 4523,
      "": 4524,
      "": 4525,
      "": 4526,
      "": 4527,
      "": 4528,
      "": 4529,
      "": 4530,
      "": 4531,
      "": 4532,
      "": 4533,
      "": 4534,
      "": 4535,
      "": 4536,
      "": 4537,
      "": 4538,
      "": 4539,
      "": 4540,
      "": 4541,
      "": 4542,
      "": 4543,
      "": 4544,
      "": 4545,
      "": 4546,
      "": 4547,
      "": 4548,
      "": 4549,
      "": 4550,
      "": 4551,
      "": 4552,
      "": 4553,
      "": 4554,
      "": 4555,
      "": 4556,
      "": 4557,
      "": 4558,
      "": 4559,
      "": 4560,
      "": 4561,
      "": 4562,
      "": 4563,
      "": 4564,
      "": 4565,
      "": 4566,
      "": 4567,
      "": 4568,
      "": 4569,
      "ﬁ": 4570,
      "︺": 4571,
      "︽": 4572,
      "﹄": 4573,
      "﹊": 4574,
      "﹍": 4575,
      "﹑": 4576,
      "﹖": 4577,
      "﹚": 4578,
      "﹝": 4579,
      "﹣": 4580,
      "ﺀ": 4581,
      "ﺃ": 4582,
      "ﺄ": 4583,
      "ﺇ": 4584,
      "ﺍ": 4585,
      "ﺎ": 4586,
      "ﺑ": 4587,
      "ﺒ": 4588,
      "ﺔ": 4589,
      "ﺖ": 4590,
      "ﺗ": 4591,
      "ﺘ": 4592,
      "ﺠ": 4593,
      "ﺣ": 4594,
      "ﺩ": 4595,
      "ﺪ": 4596,
      "ﺫ": 4597,
      "ﺬ": 4598,
      "ﺮ": 4599,
      "ﺳ": 4600,
      "ﺴ": 4601,
      "ﺷ": 4602,
      "ﺸ": 4603,
      "ﻈ": 4604,
      "ﻋ": 4605,
      "ﻌ": 4606,
      "ﻓ": 4607,
      "ﻔ": 4608,
      "ﻗ": 4609,
      "ﻘ": 4610,
      "ﻚ": 4611,
      "ﻛ": 4612,
      "ﻜ": 4613,
      "ﻝ": 4614,
      "ﻟ": 4615,
      "ﻠ": 4616,
      "ﻢ": 4617,
      "ﻣ": 4618,
      "ﻤ": 4619,
      "ﻧ": 4620,
      "ﻨ": 4621,
      "ﻪ": 4622,
      "ﻫ": 4623,
      "ﻭ": 4624,
      "ﻮ": 4625,
      "ﻲ": 4626,
      "ﻴ": 4627,
      "！": 4628,
      "＃": 4629,
      "％": 4630,
      "（": 4631,
      "）": 4632,
      "＊": 4633,
      "＋": 4634,
      "，": 4635,
      "－": 4636,
      "．": 4637,
      "／": 4638,
      "４": 4639,
      "５": 4640,
      "：": 4641,
      "；": 4642,
      "＝": 4643,
      "？": 4644,
      "［": 4645,
      "］": 4646,
      "～": 4647,
      "th": 4648,
      "on": 4649,
      "in": 4650,
      "the": 4651,
      "an": 4652,
      "re": 4653,
      "at": 4654,
      "en": 4655,
      "er": 4656,
      "ion": 4657,
      "or": 4658,
      "of": 4659,
      "al": 4660,
      "es": 4661,
      "it": 4662,
      "ou": 4663,
      "ed": 4664,
      "and": 4665,
      "is": 4666,
      "to": 4667,
      "ar": 4668,
      "ing": 4669,
      "ent": 4670,
      "ation": 4671,
      "ic": 4672,
      "as": 4673,
      "om": 4674,
      "ec": 4675,
      "st": 4676,
      "le": 4677,
      "ve": 4678,
      "ro": 4679,
      "he": 4680,
      "for": 4681,
      "ac": 4682,
      "il": 4683,
      "ment": 4684,
      "de": 4685,
      "00": 4686,
      "be": 4687,
      "se": 4688,
      "res": 4689,
      "im": 4690,
      "ol": 4691,
      "con": 4692,
      "pro": 4693,
      "ig": 4694,
      "that": 4695,
      "su": 4696,
      "ter": 4697,
      "ly": 4698,
      "ce": 4699,
      "ra": 4700,
      "lo": 4701,
      "200": 4702,
      "tion": 4703,
      "ad": 4704,
      "me": 4705,
      "un": 4706,
      "you": 4707,
      "no": 4708,
      "id": 4709,
      "The": 4710,
      "ts": 4711,
      "ur": 4712,
      "te": 4713,
      "ies": 4714,
      "ver": 4715,
      "ab": 4716,
      "tr": 4717,
      "ir": 4718,
      "..": 4719,
      "com": 4720,
      "we": 4721,
      "ith": 4722,
      "ch": 4723,
      "ations": 4724,
      "ate": 4725,
      "ag": 4726,
      "ul": 4727,
      "with": 4728,
      "ld": 4729,
      "are": 4730,
      "ity": 4731,
      "oun": 4732,
      "per": 4733,
      "wh": 4734,
      "por": 4735,
      "igh": 4736,
      "et": 4737,
      "ess": 4738,
      "par": 4739,
      "all": 4740,
      "ay": 4741,
      "ap": 4742,
      "by": 4743,
      "ex": 4744,
      "ive": 4745,
      "ial": 4746,
      "if": 4747,
      "sh": 4748,
      "mb": 4749,
      "iv": 4750,
      "po": 4751,
      "port": 4752,
      "man": 4753,
      "ain": 4754,
      "ational": 4755,
      "so": 4756,
      "ther": 4757,
      "ect": 4758,
      "ha": 4759,
      "us": 4760,
      "go": 4761,
      "qu": 4762,
      "end": 4763,
      "In": 4764,
      "ke": 4765,
      "ill": 4766,
      "ould": 4767,
      "19": 4768,
      "fr": 4769,
      "ut": 4770,
      "pr": 4771,
      "ll": 4772,
      "Com": 4773,
      "pl": 4774,
      "iz": 4775,
      "Un": 4776,
      "ne": 4777,
      "est": 4778,
      "am": 4779,
      "uc": 4780,
      "not": 4781,
      "our": 4782,
      "op": 4783,
      "国家": 4784,
      "was": 4785,
      "ren": 4786,
      "national": 4787,
      "its": 4788,
      "委员": 4789,
      "委员会": 4790,
      "我们": 4791,
      "St": 4792,
      "ited": 4793,
      "part": 4794,
      "wor": 4795,
      "ie": 4796,
      "mit": 4797,
      "od": 4798,
      "ant": 4799,
      "会议": 4800,
      "ff": 4801,
      "ud": 4802,
      "out": 4803,
      "ary": 4804,
      "inc": 4805,
      "...": 4806,
      "do": 4807,
      "em": 4808,
      "act": 4809,
      "lop": 4810,
      "ance": 4811,
      "ust": 4812,
      "velop": 4813,
      "pe": 4814,
      "联合": 4815,
      "ib": 4816,
      "ist": 4817,
      "have": 4818,
      "ution": 4819,
      "United": 4820,
      "mber": 4821,
      "问题": 4822,
      "der": 4823,
      "co": 4824,
      "this": 4825,
      "mo": 4826,
      "国际": 4827,
      "eral": 4828,
      "sion": 4829,
      "coun": 4830,
      "ia": 4831,
      "el": 4832,
      "inter": 4833,
      "工作": 4834,
      "red": 4835,
      "from": 4836,
      "reg": 4837,
      "ma": 4838,
      "联合国": 4839,
      "ight": 4840,
      "ple": 4841,
      "ates": 4842,
      "ated": 4843,
      "ard": 4844,
      "发展": 4845,
      "up": 4846,
      "one": 4847,
      "报告": 4848,
      "form": 4849,
      "ge": 4850,
      "Th": 4851,
      "Con": 4852,
      "Nations": 4853,
      "pres": 4854,
      "work": 4855,
      "eneral": 4856,
      "develop": 4857,
      "ments": 4858,
      "prov": 4859,
      "fe": 4860,
      "ich": 4861,
      "Re": 4862,
      "dis": 4863,
      "Sec": 4864,
      "ities": 4865,
      "their": 4866,
      "pre": 4867,
      "has": 4868,
      "able": 4869,
      "rou": 4870,
      "gh": 4871,
      "now": 4872,
      "which": 4873,
      "ice": 4874,
      "199": 4875,
      "comm": 4876,
      "sp": 4877,
      "ace": 4878,
      "ip": 4879,
      "组织": 4880,
      "ta": 4881,
      "一个": 4882,
      "10": 4883,
      "will": 4884,
      "over": 4885,
      "No": 4886,
      "ure": 4887,
      "ish": 4888,
      "ass": 4889,
      "You": 4890,
      "countr": 4891,
      "ret": 4892,
      "ical": 4893,
      "As": 4894,
      "General": 4895,
      "It": 4896,
      "tee": 4897,
      "ted": 4898,
      "cont": 4899,
      "other": 4900,
      "ission": 4901,
      "Wh": 4902,
      "cr": 4903,
      "pos": 4904,
      "We": 4905,
      "ub": 4906,
      "vent": 4907,
      "um": 4908,
      "ide": 4909,
      "ind": 4910,
      "mittee": 4911,
      "gra": 4912,
      "lic": 4913,
      "la": 4914,
      "uman": 4915,
      "ans": 4916,
      "ights": 4917,
      "States": 4918,
      "king": 4919,
      "ers": 4920,
      "ome": 4921,
      "ord": 4922,
      "here": 4923,
      "ous": 4924,
      "关于": 4925,
      "Committee": 4926,
      "sec": 4927,
      "政府": 4928,
      "international": 4929,
      "ition": 4930,
      "方面": 4931,
      "ons": 4932,
      "had": 4933,
      "anc": 4934,
      "提供": 4935,
      "ow": 4936,
      "been": 4937,
      "fo": 4938,
      "str": 4939,
      "art": 4940,
      "olution": 4941,
      "incl": 4942,
      "Coun": 4943,
      "li": 4944,
      "12": 4945,
      "He": 4946,
      "gan": 4947,
      "ong": 4948,
      "以及": 4949,
      "ach": 4950,
      "ence": 4951,
      "cil": 4952,
      "他们": 4953,
      "would": 4954,
      "这些": 4955,
      "决议": 4956,
      "should": 4957,
      "under": 4958,
      "ild": 4959,
      "also": 4960,
      "leg": 4961,
      "can": 4962,
      "ision": 4963,
      "mission": 4964,
      "社会": 4965,
      "代表": 4966,
      "enc": 4967,
      "ine": 4968,
      "low": 4969,
      "au": 4970,
      "report": 4971,
      "age": 4972,
      "行动": 4973,
      "plement": 4974,
      "情况": 4975,
      "执行": 4976,
      "sup": 4977,
      "ser": 4978,
      "An": 4979,
      "ian": 4980,
      "resp": 4981,
      "ob": 4982,
      "Council": 4983,
      "sub": 4984,
      "包括": 4985,
      "ganiz": 4986,
      "ear": 4987,
      "gram": 4988,
      "通过": 4989,
      "there": 4990,
      "安全": 4991,
      "cess": 4992,
      "my": 4993,
      "什么": 4994,
      "present": 4995,
      "oper": 4996,
      "urity": 4997,
      "sa": 4998,
      "ative": 4999,
      "其他": 5000,
      "reat": 5001,
      "resolution": 5002,
      "ful": 5003,
      "有关": 5004,
      "机构": 5005,
      "特别": 5006,
      "rec": 5007,
      "ign": 5008,
      "were": 5009,
      "feren": 5010,
      "ep": 5011,
      "进行": 5012,
      "know": 5013,
      "your": 5014,
      "ime": 5015,
      "UN": 5016,
      "秘书": 5017,
      "tra": 5018,
      "ree": 5019,
      "dec": 5020,
      "gu": 5021,
      "pol": 5022,
      "conc": 5023,
      "min": 5024,
      "get": 5025,
      "rel": 5026,
      "oc": 5027,
      "partic": 5028,
      "ty": 5029,
      "countries": 5030,
      "所有": 5031,
      "development": 5032,
      "requ": 5033,
      "cons": 5034,
      "includ": 5035,
      "ast": 5036,
      "ult": 5037,
      "vention": 5038,
      "15": 5039,
      "Ch": 5040,
      "人权": 5041,
      "经济": 5042,
      "any": 5043,
      "ession": 5044,
      "they": 5045,
      "human": 5046,
      "没有": 5047,
      "ress": 5048,
      "ublic": 5049,
      "方案": 5050,
      "nment": 5051,
      "Pro": 5052,
      "ase": 5053,
      "ose": 5054,
      "理事": 5055,
      "implement": 5056,
      "ph": 5057,
      "fin": 5058,
      "公约": 5059,
      "omen": 5060,
      "need": 5061,
      "ech": 5062,
      "rights": 5063,
      "Secret": 5064,
      "ecial": 5065,
      "理事会": 5066,
      "ok": 5067,
      "int": 5068,
      "public": 5069,
      "duc": 5070,
      "合作": 5071,
      "ual": 5072,
      "ific": 5073,
      "meet": 5074,
      "大会": 5075,
      "20": 5076,
      "妇女": 5077,
      "just": 5078,
      "right": 5079,
      "more": 5080,
      "ident": 5081,
      "11": 5082,
      "off": 5083,
      "De": 5084,
      "),": 5085,
      "thing": 5086,
      "gr": 5087,
      "some": 5088,
      "who": 5089,
      "ack": 5090,
      "pers": 5091,
      "ning": 5092,
      "ures": 5093,
      "support": 5094,
      "very": 5095,
      "tions": 5096,
      "add": 5097,
      "ory": 5098,
      "iew": 5099,
      "don": 5100,
      "ms": 5101,
      "session": 5102,
      "ility": 5103,
      "建议": 5104,
      "like": 5105,
      "ied": 5106,
      "inform": 5107,
      "Inter": 5108,
      "view": 5109,
      "活动": 5110,
      "rough": 5111,
      "region": 5112,
      "Commission": 5113,
      "ven": 5114,
      "them": 5115,
      "semb": 5116,
      "organiz": 5117,
      "sy": 5118,
      "2000": 5119,
      "ci": 5120,
      "program": 5121,
      "这一": 5122,
      "Ad": 5123,
      "ces": 5124,
      "ound": 5125,
      "sembly": 5126,
      "such": 5127,
      "Gover": 5128,
      "abl": 5129,
      "roup": 5130,
      "what": 5131,
      "儿童": 5132,
      "Assembly": 5133,
      "again": 5134,
      "需要": 5135,
      "项目": 5136,
      "ef": 5137,
      "2005": 5138,
      "und": 5139,
      "including": 5140,
      "ue": 5141,
      "fore": 5142,
      "bet": 5143,
      "inv": 5144,
      "规定": 5145,
      "What": 5146,
      "区域": 5147,
      "ors": 5148,
      "stit": 5149,
      "way": 5150,
      "ft": 5151,
      "ices": 5152,
      "State": 5153,
      "his": 5154,
      "可以": 5155,
      "可能": 5156,
      "根据": 5157,
      "ular": 5158,
      "采取": 5159,
      "和平": 5160,
      "vi": 5161,
      "2004": 5162,
      "contin": 5163,
      "those": 5164,
      "about": 5165,
      "meeting": 5166,
      "women": 5167,
      "决定": 5168,
      "ffect": 5169,
      "ference": 5170,
      "year": 5171,
      "ah": 5172,
      "dra": 5173,
      "omic": 5174,
      "知道": 5175,
      "缔约": 5176,
      "stem": 5177,
      "see": 5178,
      "ating": 5179,
      "serv": 5180,
      "but": 5181,
      "人员": 5182,
      "bo": 5183,
      "comp": 5184,
      "Secretary": 5185,
      "世界": 5186,
      "new": 5187,
      "先生": 5188,
      "imin": 5189,
      "提出": 5190,
      ").": 5191,
      "ens": 5192,
      "member": 5193,
      "bas": 5194,
      "Dec": 5195,
      "主义": 5196,
      "issu": 5197,
      "2002": 5198,
      "权利": 5199,
      "ives": 5200,
      "2001": 5201,
      "Mr": 5202,
      "av": 5203,
      "ting": 5204,
      "law": 5205,
      "不是": 5206,
      "main": 5207,
      "ond": 5208,
      "And": 5209,
      "through": 5210,
      "child": 5211,
      "arr": 5212,
      "med": 5213,
      "cent": 5214,
      "措施": 5215,
      "ection": 5216,
      "13": 5217,
      "必须": 5218,
      "time": 5219,
      "2003": 5220,
      "cus": 5221,
      "econ": 5222,
      "秘书长": 5223,
      "system": 5224,
      "18": 5225,
      "Convention": 5226,
      "concer": 5227,
      "法律": 5228,
      "lear": 5229,
      "made": 5230,
      "17": 5231,
      "ari": 5232,
      "him": 5233,
      "号决议": 5234,
      "ablish": 5235,
      "重要": 5236,
      "ople": 5237,
      "30": 5238,
      "ember": 5239,
      "计划": 5240,
      "use": 5241,
      "vel": 5242,
      "继续": 5243,
      "into": 5244,
      "14": 5245,
      "well": 5246,
      "establish": 5247,
      "than": 5248,
      "trib": 5249,
      "come": 5250,
      "Is": 5251,
      "col": 5252,
      "ise": 5253,
      "2006": 5254,
      "na": 5255,
      "implementation": 5256,
      "mon": 5257,
      "技术": 5258,
      "支持": 5259,
      "2007": 5260,
      "information": 5261,
      "Ac": 5262,
      "operation": 5263,
      "ile": 5264,
      "ally": 5265,
      "主席": 5266,
      "ire": 5267,
      "ak": 5268,
      "lar": 5269,
      "stand": 5270,
      "ject": 5271,
      "Afr": 5272,
      "commun": 5273,
      "og": 5274,
      "provid": 5275,
      "Afric": 5276,
      "成员": 5277,
      "ink": 5278,
      "istr": 5279,
      "trans": 5280,
      "Sp": 5281,
      "任何": 5282,
      "sel": 5283,
      "against": 5284,
      "pri": 5285,
      "认为": 5286,
      "International": 5287,
      "cap": 5288,
      "tw": 5289,
      "加强": 5290,
      "This": 5291,
      "如果": 5292,
      "peace": 5293,
      "16": 5294,
      "ollow": 5295,
      "vis": 5296,
      "ism": 5297,
      "got": 5298,
      "gover": 5299,
      "commend": 5300,
      "take": 5301,
      "did": 5302,
      "努力": 5303,
      "fir": 5304,
      "基金": 5305,
      "ner": 5306,
      "sit": 5307,
      "保护": 5308,
      "sure": 5309,
      "echn": 5310,
      "activ": 5311,
      "bal": 5312,
      "届会议": 5313,
      "exp": 5314,
      "could": 5315,
      "icle": 5316,
      "Wor": 5317,
      "ween": 5318,
      "ges": 5319,
      "促进": 5320,
      "meas": 5321,
      "Security": 5322,
      "注意": 5323,
      "的人": 5324,
      "adop": 5325,
      "particular": 5326,
      "effect": 5327,
      "appro": 5328,
      "her": 5329,
      "att": 5330,
      "day": 5331,
      "我的": 5332,
      "peri": 5333,
      "between": 5334,
      "terr": 5335,
      "Government": 5336,
      "inte": 5337,
      "recommend": 5338,
      "financ": 5339,
      "land": 5340,
      "的一": 5341,
      "order": 5342,
      "br": 5343,
      "政策": 5344,
      "要求": 5345,
      "people": 5346,
      "ange": 5347,
      "aff": 5348,
      "ible": 5349,
      "prom": 5350,
      "assist": 5351,
      "建立": 5352,
      "草案": 5353,
      "援助": 5354,
      "武器": 5355,
      "ref": 5356,
      "security": 5357,
      "Develop": 5358,
      "set": 5359,
      "That": 5360,
      "For": 5361,
      "acc": 5362,
      "import": 5363,
      "effor": 5364,
      "25": 5365,
      "may": 5366,
      "系统": 5367,
      "在这": 5368,
      "II": 5369,
      "di": 5370,
      "represent": 5371,
      "level": 5372,
      "影响": 5373,
      "wn": 5374,
      "ources": 5375,
      "mar": 5376,
      "能力": 5377,
      "only": 5378,
      "raph": 5379,
      "agraph": 5380,
      "thor": 5381,
      "alth": 5382,
      "ough": 5383,
      "ider": 5384,
      "follow": 5385,
      "where": 5386,
      "管理": 5387,
      "led": 5388,
      "已经": 5389,
      "these": 5390,
      "draft": 5391,
      "非洲": 5392,
      "stitution": 5393,
      "tain": 5394,
      "因为": 5395,
      "行为": 5396,
      "reas": 5397,
      "ug": 5398,
      "Conference": 5399,
      "mat": 5400,
      "want": 5401,
      "你的": 5402,
      "activities": 5403,
      "部分": 5404,
      "air": 5405,
      "环境": 5406,
      "des": 5407,
      "提交": 5408,
      "斯坦": 5409,
      "资源": 5410,
      "country": 5411,
      "23": 5412,
      "服务": 5413,
      "measures": 5414,
      "bec": 5415,
      "ks": 5416,
      "目标": 5417,
      "ann": 5418,
      "缔约国": 5419,
      "urther": 5420,
      "ffic": 5421,
      "concern": 5422,
      "techn": 5423,
      "process": 5424,
      "ards": 5425,
      "conf": 5426,
      "tak": 5427,
      "22": 5428,
      "then": 5429,
      "olog": 5430,
      "paragraph": 5431,
      "现在": 5432,
      "ail": 5433,
      "cur": 5434,
      "ute": 5435,
      "的报告": 5436,
      "确保": 5437,
      "这种": 5438,
      "prot": 5439,
      "polic": 5440,
      "loc": 5441,
      "good": 5442,
      "Al": 5443,
      "Ex": 5444,
      "ects": 5445,
      "全球": 5446,
      "ilit": 5447,
      "Republic": 5448,
      "aw": 5449,
      "和国": 5450,
      "Co": 5451,
      "decision": 5452,
      "文件": 5453,
      "ship": 5454,
      "Or": 5455,
      "ters": 5456,
      "regional": 5457,
      "organizations": 5458,
      "af": 5459,
      "mer": 5460,
      "provision": 5461,
      "ized": 5462,
      "美元": 5463,
      "Development": 5464,
      "各国": 5465,
      "cooperation": 5466,
      "ency": 5467,
      "first": 5468,
      "nu": 5469,
      "2008": 5470,
      "Ar": 5471,
      "shall": 5472,
      "efforts": 5473,
      "respect": 5474,
      "bu": 5475,
      "ble": 5476,
      "uation": 5477,
      "ext": 5478,
      "two": 5479,
      "consider": 5480,
      "viol": 5481,
      "children": 5482,
      "cu": 5483,
      "审议": 5484,
      "regard": 5485,
      "ry": 5486,
      "举行": 5487,
      "共和国": 5488,
      "ques": 5489,
      "安全理事会": 5490,
      "call": 5491,
      "ev": 5492,
      "教育": 5493,
      "ization": 5494,
      "particip": 5495,
      "ural": 5496,
      "when": 5497,
      "你们": 5498,
      "这个": 5499,
      "itical": 5500,
      "app": 5501,
      "作为": 5502,
      "这样": 5503,
      "But": 5504,
      "cial": 5505,
      "fac": 5506,
      "non": 5507,
      "dep": 5508,
      "All": 5509,
      "协调": 5510,
      "vers": 5511,
      "equ": 5512,
      "tal": 5513,
      "这是": 5514,
      "number": 5515,
      "Part": 5516,
      "lobal": 5517,
      "economic": 5518,
      "24": 5519,
      "第二": 5520,
      "cl": 5521,
      "vo": 5522,
      "vir": 5523,
      "有效": 5524,
      "she": 5525,
      "作出": 5526,
      "uring": 5527,
      "发言": 5528,
      "going": 5529,
      "person": 5530,
      "als": 5531,
      "ho": 5532,
      "high": 5533,
      "rest": 5534,
      "rele": 5535,
      "must": 5536,
      "实现": 5537,
      "author": 5538,
      "enda": 5539,
      "ix": 5540,
      "contrib": 5541,
      "sur": 5542,
      "关系": 5543,
      "Min": 5544,
      "sc": 5545,
      "vant": 5546,
      "解决": 5547,
      "ced": 5548,
      "地区": 5549,
      "financial": 5550,
      "Rights": 5551,
      "resources": 5552,
      "make": 5553,
      "小组": 5554,
      "being": 5555,
      "ability": 5556,
      "Le": 5557,
      "fund": 5558,
      "ateg": 5559,
      "bod": 5560,
      "ang": 5561,
      "crimin": 5562,
      "back": 5563,
      "主要": 5564,
      "信息": 5565,
      "They": 5566,
      "place": 5567,
      "At": 5568,
      "之间": 5569,
      "resident": 5570,
      "old": 5571,
      "ivil": 5572,
      "accord": 5573,
      "Human": 5574,
      "ium": 5575,
      "因此": 5576,
      "研究": 5577,
      "world": 5578,
      "ordin": 5579,
      "government": 5580,
      "Oh": 5581,
      "dif": 5582,
      "使用": 5583,
      "onment": 5584,
      "row": 5585,
      "taken": 5586,
      "部门": 5587,
      "soci": 5588,
      "一些": 5589,
      "参与": 5590,
      "政治": 5591,
      "developing": 5592,
      "得到": 5593,
      "emp": 5594,
      "group": 5595,
      "mes": 5596,
      "怎么": 5597,
      "考虑": 5598,
      "的工作": 5599,
      "address": 5600,
      "programme": 5601,
      "tle": 5602,
      "持续": 5603,
      "议程": 5604,
      "ince": 5605,
      "Bo": 5606,
      "bel": 5607,
      "plic": 5608,
      "发展中": 5609,
      "ause": 5610,
      "said": 5611,
      "let": 5612,
      "人的": 5613,
      "reng": 5614,
      "ieve": 5615,
      "Group": 5616,
      "tor": 5617,
      "hel": 5618,
      "legal": 5619,
      "讨论": 5620,
      "loy": 5621,
      "commit": 5622,
      "period": 5623,
      "party": 5624,
      "注意到": 5625,
      "effective": 5626,
      "领域": 5627,
      "ina": 5628,
      "Special": 5629,
      "vironment": 5630,
      "En": 5631,
      "pt": 5632,
      "ank": 5633,
      "ite": 5634,
      "special": 5635,
      "article": 5636,
      "代表团": 5637,
      "我不": 5638,
      "期间": 5639,
      "iti": 5640,
      "state": 5641,
      "There": 5642,
      "条约": 5643,
      "think": 5644,
      "itor": 5645,
      "action": 5646,
      "most": 5647,
      "years": 5648,
      "self": 5649,
      "assistance": 5650,
      "social": 5651,
      "作用": 5652,
      "审查": 5653,
      "press": 5654,
      "capac": 5655,
      "Ag": 5656,
      "further": 5657,
      "就是": 5658,
      "promo": 5659,
      "lif": 5660,
      "pur": 5661,
      "——": 5662,
      "人民": 5663,
      "冲突": 5664,
      "欧洲": 5665,
      "ict": 5666,
      "rent": 5667,
      "members": 5668,
      "恐怖": 5669,
      "sign": 5670,
      "ys": 5671,
      "应该": 5672,
      "review": 5673,
      "atives": 5674,
      "item": 5675,
      "ports": 5676,
      "respons": 5677,
      "26": 5678,
      "Ne": 5679,
      "Pe": 5680,
      "uro": 5681,
      "continu": 5682,
      "27": 5683,
      "获得": 5684,
      "但是": 5685,
      "ants": 5686,
      "gress": 5687,
      "ved": 5688,
      "其中": 5689,
      "President": 5690,
      "educ": 5691,
      "28": 5692,
      "So": 5693,
      "ving": 5694,
      "相关": 5695,
      "many": 5696,
      "增加": 5697,
      "开展": 5698,
      "贸易": 5699,
      "read": 5700,
      "21": 5701,
      "31": 5702,
      "必要": 5703,
      "propos": 5704,
      "streng": 5705,
      "pract": 5706,
      "1999": 5707,
      "poss": 5708,
      "how": 5709,
      "mand": 5710,
      "强调": 5711,
      "战略": 5712,
      "docu": 5713,
      "struc": 5714,
      "发展中国家": 5715,
      "的问题": 5716,
      "第5": 5717,
      "）。": 5718,
      "ariat": 5719,
      "ten": 5720,
      "request": 5721,
      "build": 5722,
      "参加": 5723,
      "实施": 5724,
      "表示": 5725,
      "ining": 5726,
      "imp": 5727,
      "agement": 5728,
      "issues": 5729,
      "relevant": 5730,
      "uch": 5731,
      "的是": 5732,
      "美国": 5733,
      "within": 5734,
      "一步": 5735,
      "秘书处": 5736,
      "事务": 5737,
      "arch": 5738,
      "000": 5739,
      "say": 5740,
      "取得": 5741,
      "ality": 5742,
      "ety": 5743,
      "provide": 5744,
      "programmes": 5745,
      "希望": 5746,
      "自己": 5747,
      "ensure": 5748,
      "related": 5749,
      "before": 5750,
      "provided": 5751,
      "less": 5752,
      "利亚": 5753,
      "它们": 5754,
      "正在": 5755,
      "produc": 5756,
      "agree": 5757,
      "plan": 5758,
      "adopted": 5759,
      "60": 5760,
      "ize": 5761,
      "terror": 5762,
      "Euro": 5763,
      "nec": 5764,
      "health": 5765,
      "accoun": 5766,
      "keep": 5767,
      "services": 5768,
      "意见": 5769,
      "法院": 5770,
      "预算": 5771,
      "reed": 5772,
      "iven": 5773,
      "方面的": 5774,
      "help": 5775,
      "ude": 5776,
      "能够": 5777,
      "ention": 5778,
      "ected": 5779,
      "特别是": 5780,
      "long": 5781,
      "ily": 5782,
      "aren": 5783,
      "uclear": 5784,
      "Go": 5785,
      "IC": 5786,
      "bud": 5787,
      "deleg": 5788,
      "198": 5789,
      "persons": 5790,
      "conflic": 5791,
      "Cha": 5792,
      "Tr": 5793,
      "共同": 5794,
      "ines": 5795,
      "held": 5796,
      "ibility": 5797,
      "ww": 5798,
      "以便": 5799,
      "犯罪": 5800,
      "Europe": 5801,
      "both": 5802,
      "指出": 5803,
      "consu": 5804,
      "ples": 5805,
      "down": 5806,
      "尼亚": 5807,
      "的情况": 5808,
      "illion": 5809,
      "Organiz": 5810,
      "Member": 5811,
      "Pr": 5812,
      "civil": 5813,
      "fra": 5814,
      "的各": 5815,
      "institution": 5816,
      "capacity": 5817,
      "dom": 5818,
      "every": 5819,
      "开始": 5820,
      "12月": 5821,
      "community": 5822,
      "necess": 5823,
      "ss": 5824,
      "的国家": 5825,
      "而且": 5826,
      "oura": 5827,
      "Program": 5828,
      "addition": 5829,
      "continue": 5830,
      "pa": 5831,
      "第一": 5832,
      "进一步": 5833,
      "Off": 5834,
      "To": 5835,
      "ious": 5836,
      "iss": 5837,
      "weap": 5838,
      "December": 5839,
      "situation": 5840,
      "50": 5841,
      "eah": 5842,
      "great": 5843,
      "jo": 5844,
      "treat": 5845,
      "tex": 5846,
      "areas": 5847,
      "Mo": 5848,
      "fact": 5849,
      "基础": 5850,
      "目前": 5851,
      "Rec": 5852,
      "dition": 5853,
      "used": 5854,
      "among": 5855,
      "World": 5856,
      "after": 5857,
      "ired": 5858,
      "ector": 5859,
      "parties": 5860,
      "利用": 5861,
      "程序": 5862,
      "资料": 5863,
      "access": 5864,
      "Africa": 5865,
      "ID": 5866,
      "联盟": 5867,
      "spec": 5868,
      "不能": 5869,
      "中的": 5870,
      "时间": 5871,
      "cour": 5872,
      "发生": 5873,
      "支助": 5874,
      "rece": 5875,
      "ared": 5876,
      "appropri": 5877,
      "cor": 5878,
      "during": 5879,
      "proble": 5880,
      "progress": 5881,
      "current": 5882,
      "ying": 5883,
      "框架": 5884,
      "问题的": 5885,
      "political": 5886,
      "She": 5887,
      "lt": 5888,
      "专家": 5889,
      "办法": 5890,
      "标准": 5891,
      "确定": 5892,
      "based": 5893,
      "任务": 5894,
      "enn": 5895,
      "ings": 5896,
      "ender": 5897,
      "Office": 5898,
      "CN": 5899,
      "Pal": 5900,
      "fun": 5901,
      "global": 5902,
      "特派": 5903,
      "wever": 5904,
      "protection": 5905,
      "If": 5906,
      "ral": 5907,
      "机制": 5908,
      "urn": 5909,
      "Programme": 5910,
      "clo": 5911,
      "提高": 5912,
      "附件": 5913,
      "remain": 5914,
      "ater": 5915,
      "--": 5916,
      "29": 5917,
      "Se": 5918,
      "Ser": 5919,
      "cas": 5920,
      "icial": 5921,
      "rol": 5922,
      "tern": 5923,
      "cho": 5924,
      "does": 5925,
      "特派团": 5926,
      "中心": 5927,
      "工作组": 5928,
      "及其": 5929,
      "reco": 5930,
      "ick": 5931,
      "invest": 5932,
      "text": 5933,
      "On": 5934,
      "general": 5935,
      "会员": 5936,
      "调查": 5937,
      "责任": 5938,
      "进展": 5939,
      "lead": 5940,
      "integr": 5941,
      "men": 5942,
      "ture": 5943,
      "submit": 5944,
      "安理": 5945,
      "head": 5946,
      "ulation": 5947,
      "ified": 5948,
      "discus": 5949,
      "African": 5950,
      "ave": 5951,
      "three": 5952,
      "force": 5953,
      "agenda": 5954,
      "ainable": 5955,
      "policy": 5956,
      "accordance": 5957,
      "care": 5958,
      "勒斯坦": 5959,
      "巴勒斯坦": 5960,
      "第三": 5961,
      "mework": 5962,
      "ministr": 5963,
      "ification": 5964,
      "Palest": 5965,
      "年12月": 5966,
      "歧视": 5967,
      "由于": 5968,
      "进程": 5969,
      "2009": 5970,
      "depend": 5971,
      "人口": 5972,
      "increas": 5973,
      "full": 5974,
      "充分": 5975,
      "原则": 5976,
      "次会议": 5977,
      "recommendations": 5978,
      "important": 5979,
      "会员国": 5980,
      "CO": 5981,
      "My": 5982,
      "平等": 5983,
      "建设": 5984,
      "enh": 5985,
      "education": 5986,
      "Chair": 5987,
      "Soc": 5988,
      "可持续": 5989,
      "基本": 5990,
      "适当": 5991,
      "role": 5992,
      "change": 5993,
      "building": 5994,
      "ber": 5995,
      "cre": 5996,
      "rit": 5997,
      "是否": 5998,
      "Well": 5999,
      "Econ": 6000,
      "since": 6001,
      "一项": 6002,
      "处理": 6003,
      "承诺": 6004,
      "Organization": 6005,
      "appropriate": 6006,
      "dr": 6007,
      "nuclear": 6008,
      "说明": 6009,
      "coll": 6010,
      "budget": 6011,
      "培训": 6012,
      "方式": 6013,
      "滋病": 6014,
      "ister": 6015,
      "arian": 6016,
      "staff": 6017,
      "same": 6018,
      "necessary": 6019,
      "伙伴": 6020,
      "和其他": 6021,
      "新的": 6022,
      "inci": 6023,
      "own": 6024,
      "prior": 6025,
      "安理会": 6026,
      "Amer": 6027,
      "Do": 6028,
      "不会": 6029,
      "制定": 6030,
      "艾滋病": 6031,
      "une": 6032,
      "Add": 6033,
      "恐怖主义": 6034,
      "Economic": 6035,
      "Americ": 6036,
      "ilities": 6037,
      "Gu": 6038,
      "ot": 6039,
      "司法": 6040,
      "地方": 6041,
      "eration": 6042,
      "without": 6043,
      "contain": 6044,
      "case": 6045,
      "lim": 6046,
      "coordin": 6047,
      "assess": 6048,
      "strateg": 6049,
      ")。": 6050,
      "put": 6051,
      "sm": 6052,
      "atic": 6053,
      "ief": 6054,
      "2005年": 6055,
      "58": 6056,
      "mun": 6057,
      "咨询": 6058,
      "范围": 6059,
      "look": 6060,
      "cost": 6061,
      "working": 6062,
      "because": 6063,
      "ged": 6064,
      "lit": 6065,
      "wa": 6066,
      "他的": 6067,
      "制度": 6068,
      "家庭": 6069,
      "行政": 6070,
      "suc": 6071,
      "sust": 6072,
      "account": 6073,
      "Fr": 6074,
      "人道": 6075,
      "同时": 6076,
      "Come": 6077,
      "2000年": 6078,
      "全面": 6079,
      "只是": 6080,
      "消除": 6081,
      "ird": 6082,
      "Yeah": 6083,
      "ban": 6084,
      "last": 6085,
      "办事": 6086,
      "协定": 6087,
      "用于": 6088,
      "自由": 6089,
      "评估": 6090,
      "ential": 6091,
      "echan": 6092,
      "governmental": 6093,
      "Per": 6094,
      "mor": 6095,
      "much": 6096,
      "最后": 6097,
      "ield": 6098,
      "决议草案": 6099,
      "May": 6100,
      "第五": 6101,
      "eng": 6102,
      "consult": 6103,
      "bi": 6104,
      "减少": 6105,
      "成为": 6106,
      "维持": 6107,
      "istan": 6108,
      "gon": 6109,
      "nor": 6110,
      "top": 6111,
      "possible": 6112,
      "conflict": 6113,
      "ca": 6114,
      "carr": 6115,
      "具体": 6116,
      "许多": 6117,
      "阿拉": 6118,
      "办事处": 6119,
      "cla": 6120,
      "jud": 6121,
      "uly": 6122,
      "义务": 6123,
      "real": 6124,
      "environment": 6125,
      "Social": 6126,
      "fam": 6127,
      "机会": 6128,
      "too": 6129,
      "stat": 6130,
      "post": 6131,
      "concl": 6132,
      "document": 6133,
      "uary": 6134,
      "到了": 6135,
      "按照": 6136,
      "接受": 6137,
      "icult": 6138,
      "rab": 6139,
      "management": 6140,
      "uck": 6141,
      "40": 6142,
      "million": 6143,
      "though": 6144,
      "framework": 6145,
      "6月": 6146,
      "bro": 6147,
      "six": 6148,
      "宣言": 6149,
      "议定": 6150,
      "那些": 6151,
      "invol": 6152,
      "laration": 6153,
      "mark": 6154,
      "gonna": 6155,
      "61": 6156,
      "even": 6157,
      "kill": 6158,
      "mechan": 6159,
      "ore": 6160,
      "第3": 6161,
      "reports": 6162,
      "del": 6163,
      "ims": 6164,
      "proced": 6165,
      "second": 6166,
      "ances": 6167,
      "training": 6168,
      "following": 6169,
      "hand": 6170,
      "为了": 6171,
      "以色": 6172,
      "认识": 6173,
      "unt": 6174,
      "exist": 6175,
      "ived": 6176,
      "avail": 6177,
      "以色列": 6178,
      "give": 6179,
      "ris": 6180,
      "val": 6181,
      "生活": 6182,
      "鼓励": 6183,
      "weapons": 6184,
      "55": 6185,
      "How": 6186,
      "Pol": 6187,
      "lan": 6188,
      "lig": 6189,
      "帮助": 6190,
      "ese": 6191,
      "ask": 6192,
      "2003年": 6193,
      "Parties": 6194,
      "ade": 6195,
      "happ": 6196,
      "sol": 6197,
      "ule": 6198,
      "他們": 6199,
      "公司": 6200,
      "拉克": 6201,
      "数据": 6202,
      "欢迎": 6203,
      "esp": 6204,
      "while": 6205,
      "position": 6206,
      "Don": 6207,
      "cer": 6208,
      "each": 6209,
      "部队": 6210,
      "高级": 6211,
      "tell": 6212,
      "ages": 6213,
      "express": 6214,
      "ended": 6215,
      "technolog": 6216,
      "ennium": 6217,
      "Fin": 6218,
      "June": 6219,
      "ben": 6220,
      "应当": 6221,
      "日至": 6222,
      "设立": 6223,
      "难民": 6224,
      "still": 6225,
      "rael": 6226,
      "require": 6227,
      "Israel": 6228,
      "gender": 6229,
      "》，": 6230,
      "暴力": 6231,
      "规则": 6232,
      "资金": 6233,
      "applic": 6234,
      "body": 6235,
      "life": 6236,
      "议定书": 6237,
      "gn": 6238,
      "ves": 6239,
      "wer": 6240,
      "文化": 6241,
      "比亚": 6242,
      "ort": 6243,
      "term": 6244,
      "upon": 6245,
      "oblig": 6246,
      "established": 6247,
      "Just": 6248,
      "find": 6249,
      "尤其": 6250,
      "民主": 6251,
      "领土": 6252,
      "erg": 6253,
      "itarian": 6254,
      "abor": 6255,
      "Reg": 6256,
      "indic": 6257,
      "ensive": 6258,
      "59": 6259,
      "63": 6260,
      "light": 6261,
      "成果": 6262,
      "正式": 6263,
      "initi": 6264,
      "para": 6265,
      "usion": 6266,
      "princi": 6267,
      "2004年": 6268,
      "阿拉伯": 6269,
      "Can": 6270,
      "Oc": 6271,
      "不同": 6272,
      "个人": 6273,
      "存在": 6274,
      "非常": 6275,
      "key": 6276,
      "question": 6277,
      "jor": 6278,
      "上的": 6279,
      "非政府": 6280,
      "allen": 6281,
      "exam": 6282,
      "provisions": 6283,
      "employ": 6284,
      "recogn": 6285,
      "48": 6286,
      "57": 6287,
      "National": 6288,
      "ient": 6289,
      "pay": 6290,
      "我想": 6291,
      "tocol": 6292,
      "197": 6293,
      "resolutions": 6294,
      "ready": 6295,
      "European": 6296,
      "clear": 6297,
      "协助": 6298,
      "告诉": 6299,
      "开发": 6300,
      "exper": 6301,
      "manent": 6302,
      "never": 6303,
      "国际社会": 6304,
      "contribution": 6305,
      "delegation": 6306,
      "With": 6307,
      "伊拉克": 6308,
      "prove": 6309,
      "irl": 6310,
      "comple": 6311,
      "iving": 6312,
      "rect": 6313,
      "缔约方": 6314,
      "Arab": 6315,
      "hal": 6316,
      "严重": 6317,
      "事项": 6318,
      "各种": 6319,
      "好的": 6320,
      "还有": 6321,
      "org": 6322,
      "deb": 6323,
      "wel": 6324,
      "point": 6325,
      "Union": 6326,
      "focus": 6327,
      "2007年": 6328,
      "importance": 6329,
      "technical": 6330,
      "Palestin": 6331,
      "Cour": 6332,
      "Sou": 6333,
      "fer": 6334,
      "gen": 6335,
      "对于": 6336,
      "并且": 6337,
      "ics": 6338,
      "stud": 6339,
      "ope": 6340,
      "basis": 6341,
      "Let": 6342,
      "field": 6343,
      "时候": 6344,
      "费用": 6345,
      "造成": 6346,
      "银行": 6347,
      "isl": 6348,
      "priv": 6349,
      "Action": 6350,
      "institutions": 6351,
      "56": 6352,
      "Me": 6353,
      "spe": 6354,
      "vari": 6355,
      "起来": 6356,
      "note": 6357,
      "ivid": 6358,
      "pop": 6359,
      "encoura": 6360,
      "trade": 6361,
      "consideration": 6362,
      "7月": 6363,
      "做法": 6364,
      "投资": 6365,
      "ale": 6366,
      "imate": 6367,
      "2002年": 6368,
      "airs": 6369,
      "AC": 6370,
      "Ho": 6371,
      "方法": 6372,
      "ata": 6373,
      "crimination": 6374,
      "ake": 6375,
      "four": 6376,
      "之前": 6377,
      "major": 6378,
      "encies": 6379,
      "something": 6380,
      "ES": 6381,
      "grow": 6382,
      "girl": 6383,
      "nments": 6384,
      "选举": 6385,
      "rease": 6386,
      "atory": 6387,
      "ules": 6388,
      "open": 6389,
      "control": 6390,
      "annex": 6391,
      "benef": 6392,
      "Cent": 6393,
      "jects": 6394,
      "ness": 6395,
      "war": 6396,
      "一种": 6397,
      "国内": 6398,
      "条件": 6399,
      "idence": 6400,
      "noted": 6401,
      "object": 6402,
      "recent": 6403,
      "keeping": 6404,
      "little": 6405,
      "success": 6406,
      "Court": 6407,
      "Ira": 6408,
      "July": 6409,
      "Sh": 6410,
      "fut": 6411,
      "ivers": 6412,
      "的国际": 6413,
      "ital": 6414,
      "工作人员": 6415,
      "oney": 6416,
      "include": 6417,
      "New": 6418,
      "Iraq": 6419,
      "Fund": 6420,
      "list": 6421,
      "产生": 6422,
      "协商": 6423,
      "卫生": 6424,
      "地位": 6425,
      "当局": 6426,
      "此外": 6427,
      "结果": 6428,
      "记录": 6429,
      "roduc": 6430,
      "tract": 6431,
      "char": 6432,
      "prevent": 6433,
      "fully": 6434,
      "econom": 6435,
      "非政府组织": 6436,
      "Sub": 6437,
      "一样": 6438,
      "受到": 6439,
      "种族": 6440,
      "challen": 6441,
      "stru": 6442,
      "2001年": 6443,
      "concerned": 6444,
      "Board": 6445,
      "terrorism": 6446,
      "func": 6447,
      "人道主义": 6448,
      "Ok": 6449,
      "hold": 6450,
      "sector": 6451,
      "ceed": 6452,
      "adv": 6453,
      "ify": 6454,
      "amoun": 6455,
      "achieve": 6456,
      "Secretariat": 6457,
      "ward": 6458,
      "批准": 6459,
      "预防": 6460,
      "Report": 6461,
      "approach": 6462,
      "Dis": 6463,
      "TA": 6464,
      "might": 6465,
      "milit": 6466,
      "如何": 6467,
      "改革": 6468,
      "独立": 6469,
      "负责": 6470,
      "acts": 6471,
      "improve": 6472,
      "ided": 6473,
      "Hey": 6474,
      "better": 6475,
      "violence": 6476,
      "differen": 6477,
      "Jo": 6478,
      "不要": 6479,
      "我是": 6480,
      "another": 6481,
      "cept": 6482,
      "tem": 6483,
      "teur": 6484,
      "play": 6485,
      "nel": 6486,
      "国家的": 6487,
      "legisl": 6488,
      "standing": 6489,
      "groups": 6490,
      "ividual": 6491,
      "future": 6492,
      "62": 6493,
      "IV": 6494,
      "一起": 6495,
      "以来": 6496,
      "禁止": 6497,
      "谈判": 6498,
      "comes": 6499,
      "izing": 6500,
      "报告员": 6501,
      "individual": 6502,
      "needs": 6503,
      "Cr": 6504,
      "为什么": 6505,
      "ths": 6506,
      "ateral": 6507,
      "compl": 6508,
      "porteur": 6509,
      "我们的": 6510,
      "Why": 6511,
      "Art": 6512,
      "strengthen": 6513,
      "small": 6514,
      "Af": 6515,
      "Sep": 6516,
      "Yes": 6517,
      "far": 6518,
      "les": 6519,
      "line": 6520,
      "nat": 6521,
      "变化": 6522,
      "控制": 6523,
      "更多": 6524,
      "涉及": 6525,
      "conduc": 6526,
      "tember": 6527,
      "reduc": 6528,
      "September": 6529,
      "之后": 6530,
      "具有": 6531,
      "大的": 6532,
      "area": 6533,
      "making": 6534,
      "10月": 6535,
      "secret": 6536,
      ");": 6537,
      "High": 6538,
      "两个": 6539,
      "你們": 6540,
      "武装": 6541,
      "的权利": 6542,
      "official": 6543,
      "Working": 6544,
      "continued": 6545,
      "Law": 6546,
      "wish": 6547,
      "一切": 6548,
      "一般": 6549,
      "监测": 6550,
      "第4": 6551,
      "instru": 6552,
      "tober": 6553,
      "ilateral": 6554,
      "comb": 6555,
      "interest": 6556,
      "October": 6557,
      "Okay": 6558,
      "Di": 6559,
      "Tra": 6560,
      "ove": 6561,
      "履行": 6562,
      "打击": 6563,
      "罗斯": 6564,
      "部长": 6565,
      "really": 6566,
      "ouse": 6567,
      "Not": 6568,
      "Declaration": 6569,
      "issue": 6570,
      "visory": 6571,
      "9月": 6572,
      "挑战": 6573,
      "mean": 6574,
      "truc": 6575,
      "communic": 6576,
      "half": 6577,
      "given": 6578,
      "一直": 6579,
      "今天": 6580,
      "公共": 6581,
      "性的": 6582,
      "最近": 6583,
      "那么": 6584,
      "非法": 6585,
      "imes": 6586,
      "means": 6587,
      "plac": 6588,
      "humanitarian": 6589,
      "2006年": 6590,
      "local": 6591,
      "available": 6592,
      "CC": 6593,
      "优先": 6594,
      "安排": 6595,
      "来的": 6596,
      "重申": 6597,
      "金融": 6598,
      "ator": 6599,
      "stant": 6600,
      "show": 6601,
      "increase": 6602,
      "1996": 6603,
      "meetings": 6604,
      "Act": 6605,
      "istry": 6606,
      "在这方面": 6607,
      "之间的": 6608,
      "chool": 6609,
      "一致": 6610,
      "实际": 6611,
      "生产": 6612,
      "财政": 6613,
      "都是": 6614,
      "appe": 6615,
      "ways": 6616,
      "Palestinian": 6617,
      "67": 6618,
      "DP": 6619,
      "Res": 6620,
      "uge": 6621,
      "关注": 6622,
      "军事": 6623,
      "稳定": 6624,
      "表明": 6625,
      "），": 6626,
      "ecut": 6627,
      "会议的": 6628,
      "有关的": 6629,
      "representative": 6630,
      "specific": 6631,
      "cup": 6632,
      "市场": 6633,
      "我要": 6634,
      "积极": 6635,
      "iness": 6636,
      "ross": 6637,
      "Protocol": 6638,
      "representatives": 6639,
      "cases": 6640,
      "33": 6641,
      "54": 6642,
      "Women": 6643,
      "data": 6644,
      "net": 6645,
      "ton": 6646,
      "印度": 6647,
      "只有": 6648,
      "国的": 6649,
      "还是": 6650,
      "arma": 6651,
      "step": 6652,
      "result": 6653,
      "ides": 6654,
      "pris": 6655,
      "developed": 6656,
      "议程项目": 6657,
      "Chairman": 6658,
      "sustainable": 6659,
      "El": 6660,
      "IN": 6661,
      "Nor": 6662,
      "Par": 6663,
      "vol": 6664,
      "俄罗斯": 6665,
      "termin": 6666,
      "portun": 6667,
      "partment": 6668,
      "nership": 6669,
      "vict": 6670,
      "两年": 6671,
      "仍然": 6672,
      "你是": 6673,
      "准备": 6674,
      "性别": 6675,
      "成功": 6676,
      "的规定": 6677,
      "监督": 6678,
      "真的": 6679,
      "首脑": 6680,
      "reach": 6681,
      "acy": 6682,
      "pover": 6683,
      "requested": 6684,
      "impact": 6685,
      "See": 6686,
      "South": 6687,
      "However": 6688,
      "CR": 6689,
      "Rap": 6690,
      "bit": 6691,
      "cult": 6692,
      "home": 6693,
      "”,": 6694,
      "立法": 6695,
      "领导": 6696,
      "required": 6697,
      "compet": 6698,
      "agreement": 6699,
      "private": 6700,
      "45": 6701,
      "fa": 6702,
      "专员": 6703,
      "临时": 6704,
      "的事": 6705,
      "知识": 6706,
      "context": 6707,
      "uss": 6708,
      "idered": 6709,
      "considered": 6710,
      "didn": 6711,
      "refl": 6712,
      "policies": 6713,
      "participation": 6714,
      "discussion": 6715,
      "可持续发展": 6716,
      "Rapporteur": 6717,
      "Aug": 6718,
      "IS": 6719,
      "kind": 6720,
      "mult": 6721,
      "……": 6722,
      "形式": 6723,
      "真主": 6724,
      "科学": 6725,
      "防止": 6726,
      "err": 6727,
      "deal": 6728,
      "posed": 6729,
      "ually": 6730,
      "particularly": 6731,
      "bodies": 6732,
      "society": 6733,
      "poverty": 6734,
      "August": 6735,
      "fif": 6736,
      "增长": 6737,
      "法庭": 6738,
      "第2": 6739,
      "设施": 6740,
      "ins": 6741,
      "allow": 6742,
      "itation": 6743,
      "sequ": 6744,
      "condition": 6745,
      "proper": 6746,
      "agencies": 6747,
      "委员会的": 6748,
      "Represent": 6749,
      "levels": 6750,
      "Peace": 6751,
      "以下": 6752,
      "保证": 6753,
      "在其": 6754,
      "孩子": 6755,
      "第四": 6756,
      "结束": 6757,
      "联邦": 6758,
      "ined": 6759,
      "hether": 6760,
      "actions": 6761,
      "taking": 6762,
      "提出的": 6763,
      "bring": 6764,
      "举行的": 6765,
      "facilit": 6766,
      "military": 6767,
      "armament": 6768,
      "Bel": 6769,
      "God": 6770,
      "Where": 6771,
      "free": 6772,
      "ption": 6773,
      "wards": 6774,
      "集团": 6775,
      "ents": 6776,
      "opportun": 6777,
      "ically": 6778,
      "Char": 6779,
      "pursu": 6780,
      "企业": 6781,
      "是的": 6782,
      "第1": 6783,
      "警察": 6784,
      "过去": 6785,
      "hear": 6786,
      "gether": 6787,
      "Minister": 6788,
      "various": 6789,
      "found": 6790,
      "tar": 6791,
      "”.": 6792,
      "关切": 6793,
      "办公": 6794,
      "发达": 6795,
      "空间": 6796,
      "sex": 6797,
      "Ind": 6798,
      "Who": 6799,
      "ences": 6800,
      "record": 6801,
      "name": 6802,
      "responsibility": 6803,
      "submitted": 6804,
      "尤其是": 6805,
      "8月": 6806,
      "Lo": 6807,
      "lines": 6808,
      "不过": 6809,
      "了解": 6810,
      "尽管": 6811,
      "收入": 6812,
      "现有": 6813,
      "看到": 6814,
      "第六": 6815,
      "经费": 6816,
      "论坛": 6817,
      "ators": 6818,
      "eria": 6819,
      "agreed": 6820,
      "Nove": 6821,
      "attention": 6822,
      "different": 6823,
      "37": 6824,
      "Mon": 6825,
      "一份": 6826,
      "中国": 6827,
      "直接": 6828,
      "规划": 6829,
      "这里": 6830,
      "thening": 6831,
      "组织的": 6832,
      "standards": 6833,
      "goti": 6834,
      "proposed": 6835,
      "wait": 6836,
      "Car": 6837,
      "Sup": 6838,
      "school": 6839,
      "won": 6840,
      "ists": 6841,
      "def": 6842,
      "igr": 6843,
      "1997": 6844,
      "通过的": 6845,
      "igned": 6846,
      "included": 6847,
      "China": 6848,
      "contained": 6849,
      "November": 6850,
      "Aff": 6851,
      "Be": 6852,
      "cy": 6853,
      "rule": 6854,
      "”。": 6855,
      "内的": 6856,
      "女士": 6857,
      "目的": 6858,
      "orry": 6859,
      "oman": 6860,
      "coming": 6861,
      "why": 6862,
      "prepar": 6863,
      "knowled": 6864,
      "monitor": 6865,
      "Ministry": 6866,
      "ecutive": 6867,
      "nal": 6868,
      "whether": 6869,
      "例如": 6870,
      "保留": 6871,
      "协议": 6872,
      "受害": 6873,
      "third": 6874,
      "erc": 6875,
      "entit": 6876,
      "project": 6877,
      "above": 6878,
      "word": 6879,
      "工作的": 6880,
      "联合国系统": 6881,
      "organization": 6882,
      "establishment": 6883,
      "believe": 6884,
      "statement": 6885,
      "EF": 6886,
      "Jan": 6887,
      "PA": 6888,
      "fl": 6889,
      "和国际": 6890,
      "回顾": 6891,
      "威胁": 6892,
      "社区": 6893,
      "towards": 6894,
      "together": 6895,
      "doing": 6896,
      "active": 6897,
      "特别报告员": 6898,
      "Governments": 6899,
      "signific": 6900,
      "www": 6901,
      "Article": 6902,
      "39": 6903,
      "den": 6904,
      "ran": 6905,
      "东西": 6906,
      "有人": 6907,
      "组成": 6908,
      "这项": 6909,
      "search": 6910,
      "poin": 6911,
      "pose": 6912,
      "power": 6913,
      "elec": 6914,
      "strong": 6915,
      "他们的": 6916,
      "vious": 6917,
      "Serv": 6918,
      "America": 6919,
      ".\"": 6920,
      "Ro": 6921,
      "ath": 6922,
      "ier": 6923,
      "rules": 6924,
      "制订": 6925,
      "呼吁": 6926,
      "所以": 6927,
      "already": 6928,
      "total": 6929,
      "resul": 6930,
      "negoti": 6931,
      "estic": 6932,
      "prep": 6933,
      "gue": 6934,
      "11月": 6935,
      "claim": 6936,
      "健康": 6937,
      "准则": 6938,
      "利益": 6939,
      "各项": 6940,
      "限制": 6941,
      "projects": 6942,
      "1998": 6943,
      "rector": 6944,
      "concerning": 6945,
      "called": 6946,
      "authorities": 6947,
      "promote": 6948,
      "ER": 6949,
      "Mar": 6950,
      "car": 6951,
      "ever": 6952,
      "iend": 6953,
      "我們": 6954,
      "无法": 6955,
      "重新": 6956,
      "threat": 6957,
      "reform": 6958,
      "preh": 6959,
      "systems": 6960,
      "certain": 6961,
      "Affairs": 6962,
      "Fed": 6963,
      "Ms": 6964,
      "Pan": 6965,
      "Pre": 6966,
      "affect": 6967,
      "cir": 6968,
      "money": 6969,
      "好了": 6970,
      "完成": 6971,
      "terms": 6972,
      "执行情况": 6973,
      "decided": 6974,
      "ground": 6975,
      "course": 6976,
      "close": 6977,
      "5月": 6978,
      "90": 6979,
      "East": 6980,
      "done": 6981,
      "ians": 6982,
      "mind": 6983,
      "next": 6984,
      "也是": 6985,
      "保障": 6986,
      "相信": 6987,
      "请求": 6988,
      "onse": 6989,
      "usiness": 6990,
      "move": 6991,
      "cratic": 6992,
      "achie": 6993,
      "subject": 6994,
      "occup": 6995,
      "ecially": 6996,
      "affir": 6997,
      "diff": 6998,
      "practices": 6999,
      "problems": 7000,
      "especially": 7001,
      "办公室": 7002,
      "80": 7003,
      "Im": 7004,
      "Man": 7005,
      "Mission": 7006,
      "Sum": 7007,
      "uce": 7008,
      "water": 7009,
      "债务": 7010,
      "虽然": 7011,
      "这么": 7012,
      "ali": 7013,
      "itive": 7014,
      "ched": 7015,
      "approv": 7016,
      "Now": 7017,
      "introduc": 7018,
      "III": 7019,
      "伙伴关系": 7020,
      "entitled": 7021,
      "Russ": 7022,
      "best": 7023,
      "cal": 7024,
      "hol": 7025,
      "miss": 7026,
      "sent": 7027,
      "uh": 7028,
      "一次": 7029,
      "同意": 7030,
      "指导": 7031,
      "文书": 7032,
      "联系": 7033,
      "mental": 7034,
      "love": 7035,
      "administr": 7036,
      "veral": 7037,
      "ulations": 7038,
      "discrimination": 7039,
      "matter": 7040,
      "addressed": 7041,
      "additional": 7042,
      "IDS": 7043,
      "technology": 7044,
      "obligations": 7045,
      "population": 7046,
      "Director": 7047,
      "prehensive": 7048,
      "az": 7049,
      "cred": 7050,
      "gent": 7051,
      "ues": 7052,
      "介绍": 7053,
      "保健": 7054,
      "分析": 7055,
      "宗教": 7056,
      "承认": 7057,
      "西亚": 7058,
      "通知": 7059,
      "arms": 7060,
      "alling": 7061,
      "ending": 7062,
      "Ann": 7063,
      "respond": 7064,
      "guide": 7065,
      "direct": 7066,
      "73": 7067,
      "gin": 7068,
      "土著": 7069,
      "完全": 7070,
      "改善": 7071,
      "某些": 7072,
      "裁军": 7073,
      "过程": 7074,
      "ension": 7075,
      "stitute": 7076,
      "Permanent": 7077,
      "维持和平": 7078,
      "market": 7079,
      "happen": 7080,
      "amount": 7081,
      "今后": 7082,
      "出现": 7083,
      "刑事": 7084,
      "尊重": 7085,
      "条款": 7086,
      "结论": 7087,
      "者的": 7088,
      "采用": 7089,
      "阿富": 7090,
      "ste": 7091,
      "least": 7092,
      "sum": 7093,
      "ada": 7094,
      "Commun": 7095,
      "These": 7096,
      "1990": 7097,
      "提供了": 7098,
      "operations": 7099,
      "traffic": 7100,
      "Department": 7101,
      "2008年": 7102,
      "commitment": 7103,
      "第五十": 7104,
      "status": 7105,
      "secretariat": 7106,
      "Apr": 7107,
      "AIDS": 7108,
      "Bank": 7109,
      "amb": 7110,
      "bur": 7111,
      "ler": 7112,
      "公民": 7113,
      "局势": 7114,
      "广泛": 7115,
      "状况": 7116,
      "的重要": 7117,
      "解释": 7118,
      "Inform": 7119,
      "food": 7120,
      "采取的": 7121,
      "received": 7122,
      "Representative": 7123,
      "阿富汗": 7124,
      "April": 7125,
      "一下": 7126,
      "专门": 7127,
      "内容": 7128,
      "发挥": 7129,
      "对话": 7130,
      "或者": 7131,
      "捐助": 7132,
      "阶段": 7133,
      "independ": 7134,
      "today": 7135,
      "emerg": 7136,
      "reported": 7137,
      "response": 7138,
      "therefore": 7139,
      "justice": 7140,
      "mater": 7141,
      "reedom": 7142,
      "problem": 7143,
      "existing": 7144,
      "significant": 7145,
      "34": 7146,
      "Get": 7147,
      "King": 7148,
      "One": 7149,
      "sen": 7150,
      "sed": 7151,
      "一定": 7152,
      "外交": 7153,
      "核武器": 7154,
      "观察": 7155,
      "违反": 7156,
      "isms": 7157,
      "serious": 7158,
      "发达国家": 7159,
      "Sy": 7160,
      "aim": 7161,
      "house": 7162,
      "原因": 7163,
      "好吧": 7164,
      "审计": 7165,
      "新闻": 7166,
      "然后": 7167,
      "管制": 7168,
      "财务": 7169,
      "适用": 7170,
      "里亚": 7171,
      "长期": 7172,
      "anal": 7173,
      "igin": 7174,
      "experi": 7175,
      "规定的": 7176,
      "medi": 7177,
      "increasing": 7178,
      "expressed": 7179,
      "requirements": 7180,
      "35": 7181,
      "Dem": 7182,
      "sim": 7183,
      "wr": 7184,
      "人们": 7185,
      "危机": 7186,
      "日第": 7187,
      "气候": 7188,
      "那个": 7189,
      "风险": 7190,
      "around": 7191,
      "friend": 7192,
      "prof": 7193,
      "ource": 7194,
      "Child": 7195,
      "domestic": 7196,
      "coordination": 7197,
      "两年期": 7198,
      "circ": 7199,
      "38": 7200,
      "Are": 7201,
      "Ma": 7202,
      "Treat": 7203,
      "US": 7204,
      "ele": 7205,
      "mod": 7206,
      "ogue": 7207,
      "侵犯": 7208,
      "喜欢": 7209,
      "因素": 7210,
      "总统": 7211,
      "案件": 7212,
      "的所有": 7213,
      "遵守": 7214,
      "ering": 7215,
      "took": 7216,
      "behalf": 7217,
      "estim": 7218,
      "return": 7219,
      "substant": 7220,
      "基金会": 7221,
      "strengthening": 7222,
      "family": 7223,
      "risk": 7224,
      "Afgh": 7225,
      ")，": 7226,
      "Fe": 7227,
      "eas": 7228,
      "gl": 7229,
      "就业": 7230,
      "达成": 7231,
      "需求": 7232,
      "ests": 7233,
      "reser": 7234,
      "ancing": 7235,
      "relig": 7236,
      "lands": 7237,
      "costs": 7238,
      "mechanisms": 7239,
      "growth": 7240,
      "challenges": 7241,
      "dated": 7242,
      "gy": 7243,
      "ior": 7244,
      "sing": 7245,
      "wide": 7246,
      "伊朗": 7247,
      "感谢": 7248,
      "综合": 7249,
      "atch": 7250,
      "enous": 7251,
      "igenous": 7252,
      "ador": 7253,
      "1995": 7254,
      "transfer": 7255,
      "vote": 7256,
      "personnel": 7257,
      "investig": 7258,
      "首脑会议": 7259,
      "difficult": 7260,
      "Global": 7261,
      "March": 7262,
      "Vi": 7263,
      "rat": 7264,
      "rup": 7265,
      "不可": 7266,
      "估计": 7267,
      "及社会": 7268,
      "合同": 7269,
      "明确": 7270,
      "普遍": 7271,
      "符合": 7272,
      "determin": 7273,
      "提供的": 7274,
      "reporting": 7275,
      "UNC": 7276,
      "考虑到": 7277,
      "的各项": 7278,
      "enhance": 7279,
      "January": 7280,
      "Afghan": 7281,
      "1月": 7282,
      "AN": 7283,
      "Some": 7284,
      "aid": 7285,
      "past": 7286,
      "上述": 7287,
      "和社会": 7288,
      "民族": 7289,
      "的影响": 7290,
      "的能力": 7291,
      "纳入": 7292,
      "该国": 7293,
      "针对": 7294,
      "rais": 7295,
      "ialogue": 7296,
      "quate": 7297,
      "行动纲": 7298,
      "police": 7299,
      "在这里": 7300,
      "fficient": 7301,
      "Executive": 7302,
      "funds": 7303,
      "criminal": 7304,
      "mandate": 7305,
      "placed": 7306,
      "47": 7307,
      "4月": 7308,
      "har": 7309,
      "ither": 7310,
      "lack": 7311,
      "保持": 7312,
      "推动": 7313,
      "日本": 7314,
      "来了": 7315,
      "的努力": 7316,
      "第十": 7317,
      "结构": 7318,
      "资产": 7319,
      "forward": 7320,
      "quar": 7321,
      "1994": 7322,
      "space": 7323,
      "情况下": 7324,
      "early": 7325,
      "relating": 7326,
      "成员国": 7327,
      "emphas": 7328,
      "application": 7329,
      "100": 7330,
      "41": 7331,
      "51": 7332,
      "Ger": 7333,
      "Jap": 7334,
      "business": 7335,
      "业务": 7336,
      "出口": 7337,
      "加入": 7338,
      "加拿": 7339,
      "助于": 7340,
      "千年": 7341,
      "星期": 7342,
      "来自": 7343,
      "然而": 7344,
      "确认": 7345,
      "When": 7346,
      "explo": 7347,
      "Environment": 7348,
      "treaty": 7349,
      "):": 7350,
      "AS": 7351,
      "Ab": 7352,
      "Li": 7353,
      "ck": 7354,
      "five": 7355,
      "freedom": 7356,
      "kid": 7357,
      "一级": 7358,
      "后续": 7359,
      "权力": 7360,
      "sug": 7361,
      "wee": 7362,
      "mob": 7363,
      "mother": 7364,
      "cris": 7365,
      "经济及社会": 7366,
      "Agenda": 7367,
      "consultations": 7368,
      "principles": 7369,
      "contributions": 7370,
      "legislation": 7371,
      "Japan": 7372,
      "Cor": 7373,
      "rac": 7374,
      "事实": 7375,
      "你不": 7376,
      "占领": 7377,
      "扩散": 7378,
      "是在": 7379,
      "的最": 7380,
      "的一个": 7381,
      "alia": 7382,
      "aring": 7383,
      "asp": 7384,
      "lease": 7385,
      "proceed": 7386,
      "thern": 7387,
      "disarmament": 7388,
      "needed": 7389,
      "okay": 7390,
      "Advisory": 7391,
      "large": 7392,
      "providing": 7393,
      "increased": 7394,
      "conclusion": 7395,
      "Look": 7396,
      "Kingdom": 7397,
      "AT": 7398,
      "Aust": 7399,
      "aud": 7400,
      "date": 7401,
      "migr": 7402,
      "os": 7403,
      "将在": 7404,
      "恢复": 7405,
      "我知道": 7406,
      "收到": 7407,
      "理由": 7408,
      "生物": 7409,
      "经常": 7410,
      "评价": 7411,
      "选择": 7412,
      "aster": 7413,
      "several": 7414,
      "pot": 7415,
      "quality": 7416,
      "previous": 7417,
      "regarding": 7418,
      "经济及社会理事会": 7419,
      "gest": 7420,
      "倡议": 7421,
      "关键": 7422,
      "反对": 7423,
      "声明": 7424,
      "实体": 7425,
      "导致": 7426,
      "income": 7427,
      "leave": 7428,
      "improv": 7429,
      "tail": 7430,
      "become": 7431,
      "ological": 7432,
      "eval": 7433,
      "thought": 7434,
      "employment": 7435,
      "conditions": 7436,
      "Demo": 7437,
      "加拿大": 7438,
      "EC": 7439,
      "HIV": 7440,
      "Sw": 7441,
      "ding": 7442,
      "night": 7443,
      "之一": 7444,
      "土地": 7445,
      "所载": 7446,
      "日在": 7447,
      "的活动": 7448,
      "的法律": 7449,
      "经验": 7450,
      "谢谢": 7451,
      "associ": 7452,
      "mention": 7453,
      "contract": 7454,
      "aged": 7455,
      "feel": 7456,
      "maintain": 7457,
      "months": 7458,
      "protect": 7459,
      "joint": 7460,
      "priority": 7461,
      "procedures": 7462,
      "example": 7463,
      "victims": 7464,
      "results": 7465,
      "3月": 7466,
      "Your": 7467,
      "fuck": 7468,
      "ht": 7469,
      "oples": 7470,
      "pass": 7471,
      "ri": 7472,
      "为此": 7473,
      "全国": 7474,
      "古巴": 7475,
      "有助于": 7476,
      "相互": 7477,
      "给我": 7478,
      "美洲": 7479,
      "群体": 7480,
      "觉得": 7481,
      "）：": 7482,
      "thod": 7483,
      "armed": 7484,
      "defin": 7485,
      "abour": 7486,
      "essential": 7487,
      "alls": 7488,
      "shop": 7489,
      "preci": 7490,
      "While": 7491,
      "consist": 7492,
      "和平与": 7493,
      "peacekeeping": 7494,
      "settle": 7495,
      "decisions": 7496,
      "44": 7497,
      "ai": 7498,
      "away": 7499,
      "event": 7500,
      "fav": 7501,
      "turn": 7502,
      "所需": 7503,
      "扩大": 7504,
      "语发言": 7505,
      "运动": 7506,
      "那样": 7507,
      "research": 7508,
      "deed": 7509,
      "exerc": 7510,
      "uty": 7511,
      "cover": 7512,
      "relations": 7513,
      "adoption": 7514,
      "refuge": 7515,
      "reason": 7516,
      "equality": 7517,
      "struct": 7518,
      "function": 7519,
      "monitoring": 7520,
      "Russian": 7521,
      "His": 7522,
      "ured": 7523,
      "不仅": 7524,
      "列入": 7525,
      "如此": 7526,
      "应对": 7527,
      "我国": 7528,
      "更加": 7529,
      "王国": 7530,
      "重大": 7531,
      "stances": 7532,
      "lot": 7533,
      "comprehensive": 7534,
      "ective": 7535,
      "utes": 7536,
      "please": 7537,
      "safe": 7538,
      "whole": 7539,
      "arrange": 7540,
      "Good": 7541,
      "Summit": 7542,
      "32": 7543,
      "Mal": 7544,
      "Plan": 7545,
      "不得": 7546,
      "交易": 7547,
      "人类": 7548,
      "内部": 7549,
      "很多": 7550,
      "我在": 7551,
      "改进": 7552,
      "整个": 7553,
      "法官": 7554,
      "alleg": 7555,
      "anda": 7556,
      "aran": 7557,
      "raz": 7558,
      "having": 7559,
      "Ass": 7560,
      "anything": 7561,
      "final": 7562,
      "practice": 7563,
      "自己的": 7564,
      ")、": 7565,
      ".,": 7566,
      "bad": 7567,
      "fail": 7568,
      "ked": 7569,
      "lat": 7570,
      "lam": 7571,
      "link": 7572,
      "uel": 7573,
      "同样": 7574,
      "多数": 7575,
      "宣布": 7576,
      "德国": 7577,
      "所作": 7578,
      "旨在": 7579,
      "电话": 7580,
      "紧急": 7581,
      "网络": 7582,
      "infr": 7583,
      "regular": 7584,
      "机构的": 7585,
      "issued": 7586,
      "matters": 7587,
      "deploy": 7588,
      "Allah": 7589,
      "however": 7590,
      "Information": 7591,
      "FF": 7592,
      "GO": 7593,
      "ger": 7594,
      "job": 7595,
      "sto": 7596,
      "sci": 7597,
      "全体": 7598,
      "危险": 7599,
      "号决定": 7600,
      "外国": 7601,
      "当然": 7602,
      "手段": 7603,
      "统计": 7604,
      "规模": 7605,
      "面临": 7606,
      "always": 7607,
      "left": 7608,
      "tran": 7609,
      "illennium": 7610,
      "Commissioner": 7611,
      "service": 7612,
      "艾滋病毒": 7613,
      "biennium": 7614,
      "expert": 7615,
      "dialogue": 7616,
      "下列": 7617,
      "从而": 7618,
      "伊斯": 7619,
      "你知道": 7620,
      "申请": 7621,
      "编写": 7622,
      "表决": 7623,
      "邀请": 7624,
      "ico": 7625,
      "icles": 7626,
      "sets": 7627,
      "nothing": 7628,
      "attack": 7629,
      "respective": 7630,
      "funda": 7631,
      "initiatives": 7632,
      "economy": 7633,
      "instruments": 7634,
      "material": 7635,
      "mediate": 7636,
      "PR": 7637,
      "hope": 7638,
      "vision": 7639,
      "了吗": 7640,
      "你要": 7641,
      "分配": 7642,
      "十年": 7643,
      "宪法": 7644,
      "残疾": 7645,
      "自然": 7646,
      "透明": 7647,
      "，《": 7648,
      "ream": 7649,
      "start": 7650,
      "room": 7651,
      "unish": 7652,
      "ulated": 7653,
      "appreci": 7654,
      "partnership": 7655,
      "发展目标": 7656,
      "报告的": 7657,
      "indigenous": 7658,
      "section": 7659,
      "进行了": 7660,
      "requests": 7661,
      "things": 7662,
      "statements": 7663,
      "1999年": 7664,
      "integration": 7665,
      "2009年": 7666,
      "assessment": 7667,
      "speak": 7668,
      "Panel": 7669,
      "trafficking": 7670,
      "Cub": 7671,
      "Iran": 7672,
      "bab": 7673,
      "mal": 7674,
      "再次": 7675,
      "劳动": 7676,
      "反映": 7677,
      "委会": 7678,
      "年度": 7679,
      "我会": 7680,
      "法国": 7681,
      "登记": 7682,
      "访问": 7683,
      "贩运": 7684,
      "thus": 7685,
      "ash": 7686,
      "forces": 7687,
      "convention": 7688,
      "raft": 7689,
      "method": 7690,
      "ivision": 7691,
      "prevention": 7692,
      "crime": 7693,
      "missions": 7694,
      "provides": 7695,
      "suring": 7696,
      "的情况下": 7697,
      "Charter": 7698,
      "wrong": 7699,
      "Further": 7700,
      "fil": 7701,
      "son": 7702,
      "table": 7703,
      "境内": 7704,
      "定的": 7705,
      "民间": 7706,
      "水平": 7707,
      "离开": 7708,
      "程度": 7709,
      "竞争": 7710,
      "贡献": 7711,
      "达到": 7712,
      "ene": 7713,
      "ert": 7714,
      "seven": 7715,
      "forms": 7716,
      "cannot": 7717,
      "儿童基金会": 7718,
      "计划署": 7719,
      "ICEF": 7720,
      "treatment": 7721,
      "until": 7722,
      "adequate": 7723,
      "Region": 7724,
      "property": 7725,
      "prepared": 7726,
      "伊斯兰": 7727,
      "fundamental": 7728,
      "AL": 7729,
      "Col": 7730,
      "DC": 7731,
      "Millennium": 7732,
      "Please": 7733,
      "cle": 7734,
      "fish": 7735,
      "ming": 7736,
      "marr": 7737,
      "pu": 7738,
      "run": 7739,
      "一名": 7740,
      "不断": 7741,
      "你说": 7742,
      "宪章": 7743,
      "的方式": 7744,
      "赔偿": 7745,
      "转让": 7746,
      "demand": 7747,
      "rap": 7748,
      "short": 7749,
      "observ": 7750,
      "rought": 7751,
      "Administr": 7752,
      "basic": 7753,
      "bruary": 7754,
      "认识到": 7755,
      "Canada": 7756,
      "study": 7757,
      "knowledge": 7758,
      "February": 7759,
      "行动纲领": 7760,
      "Other": 7761,
      "ii": 7762,
      "ling": 7763,
      "phas": 7764,
      "yet": 7765,
      "一点": 7766,
      "万美元": 7767,
      "三个": 7768,
      "事件": 7769,
      "意思": 7770,
      "有些": 7771,
      "现象": 7772,
      "的信": 7773,
      "的作用": 7774,
      "题为": 7775,
      "ently": 7776,
      "apter": 7777,
      "pret": 7778,
      "sparen": 7779,
      "others": 7780,
      "通过了": 7781,
      "participate": 7782,
      "experts": 7783,
      "facilitate": 7784,
      "Treaty": 7785,
      "crisis": 7786,
      "Em": 7787,
      "Gen": 7788,
      "Str": 7789,
      "bre": 7790,
      "pat": 7791,
      "ya": 7792,
      "你在": 7793,
      "对妇女": 7794,
      "少数": 7795,
      "工具": 7796,
      "很好": 7797,
      "找到": 7798,
      "承担": 7799,
      "提议": 7800,
      "签署": 7801,
      "origin": 7802,
      "itory": 7803,
      "enty": 7804,
      "icit": 7805,
      "omin": 7806,
      "semin": 7807,
      "imum": 7808,
      "immediate": 7809,
      "ucking": 7810,
      "former": 7811,
      "政府间": 7812,
      "方案的": 7813,
      "annual": 7814,
      "contribute": 7815,
      "Recalling": 7816,
      "drug": 7817,
      "broad": 7818,
      "procedure": 7819,
      "高级专员": 7820,
      "Democratic": 7821,
      "Offic": 7822,
      "dol": 7823,
      "fight": 7824,
      "io": 7825,
      "sorry": 7826,
      "他是": 7827,
      "令人": 7828,
      "供应": 7829,
      "出席": 7830,
      "女孩": 7831,
      "学校": 7832,
      "所述": 7833,
      "指标": 7834,
      "让我": 7835,
      "inion": 7836,
      "met": 7837,
      "ago": 7838,
      "que": 7839,
      "1991": 7840,
      "operational": 7841,
      "UNICEF": 7842,
      "selves": 7843,
      "Forum": 7844,
      "equip": 7845,
      "欧洲联盟": 7846,
      "documents": 7847,
      "girls": 7848,
      "objectives": 7849,
      "Service": 7850,
      "气候变化": 7851,
      "2月": 7852,
      "46": 7853,
      "68": 7854,
      "border": 7855,
      "fucking": 7856,
      "living": 7857,
      "ped": 7858,
      "主任": 7859,
      "做出": 7860,
      "卫星": 7861,
      "拥有": 7862,
      "支付": 7863,
      "电子": 7864,
      "的任何": 7865,
      "贫穷": 7866,
      "那里": 7867,
      "ars": 7868,
      "conn": 7869,
      "istics": 7870,
      "ders": 7871,
      "few": 7872,
      "common": 7873,
      "行动的": 7874,
      "imination": 7875,
      "laws": 7876,
      "30日": 7877,
      "financing": 7878,
      "第二十": 7879,
      "currently": 7880,
      "carried": 7881,
      "Central": 7882,
      "Afghanistan": 7883,
      "36": 7884,
      "49": 7885,
      "77": 7886,
      "By": 7887,
      "Dr": 7888,
      "aking": 7889,
      "dam": 7890,
      "due": 7891,
      "vul": 7892,
      "与会": 7893,
      "多边": 7894,
      "大家": 7895,
      "常驻": 7896,
      "并在": 7897,
      "最不": 7898,
      "朋友": 7899,
      "私营": 7900,
      "索赔": 7901,
      "请秘书长": 7902,
      "进入": 7903,
      "）；": 7904,
      "ensuring": 7905,
      "outs": 7906,
      "enter": 7907,
      "omb": 7908,
      "stress": 7909,
      "rain": 7910,
      "chan": 7911,
      "Then": 7912,
      "Asia": 7913,
      "Countr": 7914,
      "2010": 7915,
      "promotion": 7916,
      "struction": 7917,
      "iveness": 7918,
      "investment": 7919,
      "Annex": 7920,
      "EP": 7921,
      "Tur": 7922,
      "Terr": 7923,
      "ame": 7924,
      "live": 7925,
      "发现": 7926,
      "发表": 7927,
      "各方": 7928,
      "大学": 7929,
      "才能": 7930,
      "拟议": 7931,
      "给予": 7932,
      "议会": 7933,
      "贫困": 7934,
      "重点": 7935,
      "astruc": 7936,
      "ilization": 7937,
      "demo": 7938,
      "cooper": 7939,
      "Rev": 7940,
      "anced": 7941,
      "行动计划": 7942,
      "Prot": 7943,
      "grant": 7944,
      "Islam": 7945,
      "host": 7946,
      "itories": 7947,
      "planning": 7948,
      "integrated": 7949,
      "aboration": 7950,
      "reduction": 7951,
      "steps": 7952,
      "Federation": 7953,
      "guidelines": 7954,
      "IT": 7955,
      "cam": 7956,
      "ners": 7957,
      "rate": 7958,
      "yes": 7959,
      "不知道": 7960,
      "人和": 7961,
      "你想": 7962,
      "另一": 7963,
      "另外": 7964,
      "员额": 7965,
      "官员": 7966,
      "并不": 7967,
      "当地": 7968,
      "性和": 7969,
      "感到": 7970,
      "战争": 7971,
      "来源": 7972,
      "筹备": 7973,
      "自愿": 7974,
      "阿尔": 7975,
      "马里": 7976,
      "entities": 7977,
      "stay": 7978,
      "deli": 7979,
      "seen": 7980,
      "Stat": 7981,
      "peoples": 7982,
      "Here": 7983,
      "venant": 7984,
      "draw": 7985,
      "territory": 7986,
      "refer": 7987,
      "authority": 7988,
      "production": 7989,
      "involved": 7990,
      "langu": 7991,
      "Meet": 7992,
      "cultural": 7993,
      "potential": 7994,
      "transparen": 7995,
      "Bar": 7996,
      "Fore": 7997,
      "Lord": 7998,
      "Non": 7999,
      "sla": 8000,
      "主管": 8001,
      "加勒": 8002,
      "十分": 8003,
      "实质": 8004,
      "的进展": 8005,
      "职能": 8006,
      "若干": 8007,
      "证据": 8008,
      "身份": 8009,
      "部署": 8010,
      "detail": 8011,
      "begin": 8012,
      "unal": 8013,
      "abilities": 8014,
      "share": 8015,
      "ained": 8016,
      "prim": 8017,
      "Under": 8018,
      "联合王国": 8019,
      "组织和": 8020,
      "office": 8021,
      "concerns": 8022,
      "equal": 8023,
      "product": 8024,
      "次会议上": 8025,
      "mechanism": 8026,
      "principle": 8027,
      "fifty": 8028,
      "quarters": 8029,
      "vulner": 8030,
      "69": 8031,
      "Ob": 8032,
      "Te": 8033,
      "emb": 8034,
      "lad": 8035,
      "pen": 8036,
      "solution": 8037,
      "了一个": 8038,
      "修订": 8039,
      "公开": 8040,
      "叙利亚": 8041,
      "城市": 8042,
      "妈的": 8043,
      "敦促": 8044,
      "本国": 8045,
      "欧盟": 8046,
      "死亡": 8047,
      "的建议": 8048,
      "的主要": 8049,
      "看看": 8050,
      "纽约": 8051,
      "苏丹": 8052,
      "财产": 8053,
      "酷刑": 8054,
      "）、": 8055,
      "exchange": 8056,
      "uses": 8057,
      "goals": 8058,
      "workers": 8059,
      "Reques": 8060,
      "妇女和": 8061,
      "identified": 8062,
      "compan": 8063,
      "expected": 8064,
      "能力建设": 8065,
      "各国政府": 8066,
      "violations": 8067,
      "evidence": 8068,
      "talk": 8069,
      "Agency": 8070,
      "People": 8071,
      "31日": 8072,
      "咨询委员会": 8073,
      "environmental": 8074,
      "nature": 8075,
      "administrative": 8076,
      "infrastruc": 8077,
      "Requests": 8078,
      "**": 8079,
      "66": 8080,
      "Bur": 8081,
      "Doc": 8082,
      "Division": 8083,
      "Fif": 8084,
      "che": 8085,
      "ik": 8086,
      "later": 8087,
      "ply": 8088,
      "亿美元": 8089,
      "刚果": 8090,
      "协会": 8091,
      "定期": 8092,
      "宣传": 8093,
      "密切": 8094,
      "打算": 8095,
      "拟订": 8096,
      "提案": 8097,
      "改变": 8098,
      "日内": 8099,
      "是一个": 8100,
      "的时候": 8101,
      "统一": 8102,
      "证明": 8103,
      "erous": 8104,
      "often": 8105,
      "outcome": 8106,
      "distrib": 8107,
      "saf": 8108,
      "进行的": 8109,
      "UNDP": 8110,
      "tradition": 8111,
      "Covenant": 8112,
      "liferation": 8113,
      "必要的": 8114,
      "agreements": 8115,
      "greater": 8116,
      "benefit": 8117,
      "TAD": 8118,
      "Trade": 8119,
      "UNCTAD": 8120,
      "mentioned": 8121,
      "加勒比": 8122,
      "42": 8123,
      "Educ": 8124,
      "Her": 8125,
      "ires": 8126,
      "lia": 8127,
      "mine": 8128,
      "ng": 8129,
      "zer": 8130,
      "专业": 8131,
      "两性": 8132,
      "个月": 8133,
      "举办": 8134,
      "允许": 8135,
      "困难": 8136,
      "失所": 8137,
      "材料": 8138,
      "条例": 8139,
      "没事": 8140,
      "海洋": 8141,
      "离失所": 8142,
      "维亚": 8143,
      "行使": 8144,
      "过来": 8145,
      "entific": 8146,
      "cep": 8147,
      "ours": 8148,
      "1993": 8149,
      "人权委员会": 8150,
      "supported": 8151,
      "organized": 8152,
      "foreign": 8153,
      "Acc": 8154,
      "transition": 8155,
      "vised": 8156,
      "belie": 8157,
      "letter": 8158,
      "Agree": 8159,
      "areness": 8160,
      "共同体": 8161,
      "opportunity": 8162,
      "affected": 8163,
      "achieved": 8164,
      "introduced": 8165,
      "analys": 8166,
      "Germany": 8167,
      "dollar": 8168,
      "equipment": 8169,
      "Foreign": 8170,
      "52": 8171,
      "AR": 8172,
      "Ap": 8173,
      "Br": 8174,
      "Did": 8175,
      "ON": 8176,
      "Sust": 8177,
      "cop": 8178,
      "hab": 8179,
      "hib": 8180,
      "ood": 8181,
      "sat": 8182,
      "stop": 8183,
      "”，": 8184,
      "不到": 8185,
      "俄比亚": 8186,
      "公平": 8187,
      "埃塞": 8188,
      "好吗": 8189,
      "实行": 8190,
      "愿意": 8191,
      "授权": 8192,
      "提到": 8193,
      "森林": 8194,
      "流离失所": 8195,
      "班牙": 8196,
      "西班牙": 8197,
      "首先": 8198,
      "recon": 8199,
      "ensu": 8200,
      "told": 8201,
      "ication": 8202,
      "road": 8203,
      "accept": 8204,
      "suff": 8205,
      "idd": 8206,
      "manner": 8207,
      "ferences": 8208,
      "minor": 8209,
      "thank": 8210,
      "climate": 8211,
      "items": 8212,
      "Trans": 8213,
      "forcement": 8214,
      "France": 8215,
      "untary": 8216,
      "debt": 8217,
      "iversal": 8218,
      "communication": 8219,
      "exercise": 8220,
      "Meeting": 8221,
      "日内瓦": 8222,
      "埃塞俄比亚": 8223,
      "Hel": 8224,
      "Techn": 8225,
      "Yor": 8226,
      "brought": 8227,
      "cure": 8228,
      "iance": 8229,
      "mass": 8230,
      "sect": 8231,
      "woman": 8232,
      "下的": 8233,
      "亚洲": 8234,
      "商业": 8235,
      "巴嫩": 8236,
      "总部": 8237,
      "更好": 8238,
      "立即": 8239,
      "采购": 8240,
      "黎巴嫩": 8241,
      "aly": 8242,
      "star": 8243,
      "forman": 8244,
      "ilar": 8245,
      "death": 8246,
      "sufficient": 8247,
      "Thank": 8248,
      "understanding": 8249,
      "重要的": 8250,
      "recommended": 8251,
      "questions": 8252,
      "apply": 8253,
      "according": 8254,
      "committed": 8255,
      "其中包括": 8256,
      "的各种": 8257,
      "American": 8258,
      "strategy": 8259,
      "开发计划署": 8260,
      "combat": 8261,
      "观察员": 8262,
      "aimed": 8263,
      "EN": 8264,
      "Pers": 8265,
      "big": 8266,
      "eth": 8267,
      "hard": 8268,
      "nam": 8269,
      "spo": 8270,
      "以前": 8271,
      "传播": 8272,
      "决策": 8273,
      "加以": 8274,
      "性质": 8275,
      "我也": 8276,
      "日第5": 8277,
      "破坏": 8278,
      "缺乏": 8279,
      "至少": 8280,
      "赞赏": 8281,
      "鉴于": 8282,
      "；(": 8283,
      "once": 8284,
      "icip": 8285,
      "izes": 8286,
      "Unit": 8287,
      "graph": 8288,
      "guaran": 8289,
      "compens": 8290,
      "iminal": 8291,
      "awareness": 8292,
      "delegations": 8293,
      "remains": 8294,
      "individuals": 8295,
      "俄罗斯联邦": 8296,
      "target": 8297,
      "circum": 8298,
      "arrangements": 8299,
      "Assist": 8300,
      "最不发达国家": 8301,
      "Sustainable": 8302,
      "York": 8303,
      ".”": 8304,
      "70": 8305,
      "Fir": 8306,
      "Great": 8307,
      "Right": 8308,
      "XX": 8309,
      "bor": 8310,
      "either": 8311,
      "hon": 8312,
      "punish": 8313,
      "》。": 8314,
      "了一": 8315,
      "享有": 8316,
      "体制": 8317,
      "召开": 8318,
      "合法": 8319,
      "墨西": 8320,
      "巴西": 8321,
      "平民": 8322,
      "成本": 8323,
      "担心": 8324,
      "本报告": 8325,
      "来说": 8326,
      "步骤": 8327,
      "的其他": 8328,
      "质量": 8329,
      "运输": 8330,
      "ana": 8331,
      "iction": 8332,
      "vement": 8333,
      "below": 8334,
      "agr": 8335,
      "国际法": 8336,
      "else": 8337,
      "days": 8338,
      "proposals": 8339,
      "基础设施": 8340,
      "judicial": 8341,
      "sexual": 8342,
      "受害者": 8343,
      "Implement": 8344,
      "reserv": 8345,
      "aspects": 8346,
      "民间社会": 8347,
      "safety": 8348,
      "53": 8349,
      "HR": 8350,
      "Mor": 8351,
      "Mex": 8352,
      "Oper": 8353,
      "Sud": 8354,
      "bid": 8355,
      "dist": 8356,
      "eff": 8357,
      "sir": 8358,
      "下午": 8359,
      "世纪": 8360,
      "和技术": 8361,
      "年的": 8362,
      "每个": 8363,
      "满足": 8364,
      "特殊": 8365,
      "的第": 8366,
      "真正": 8367,
      "走了": 8368,
      "非正式": 8369,
      "assets": 8370,
      "eck": 8371,
      "bey": 8372,
      "bean": 8373,
      "poor": 8374,
      "opinion": 8375,
      "works": 8376,
      "Health": 8377,
      "book": 8378,
      "Cooperation": 8379,
      "eva": 8380,
      "commitments": 8381,
      "effectively": 8382,
      "benefits": 8383,
      "第六十": 8384,
      "negotiations": 8385,
      "Community": 8386,
      "Regional": 8387,
      "Protection": 8388,
      "Accord": 8389,
      "墨西哥": 8390,
      ")；": 8391,
      "Civil": 8392,
      "Ku": 8393,
      "Wel": 8394,
      "iary": 8395,
      "uations": 8396,
      "农村": 8397,
      "出的": 8398,
      "劳工": 8399,
      "地注意到": 8400,
      "我说": 8401,
      "未来": 8402,
      "的发展": 8403,
      "移民": 8404,
      "罗马": 8405,
      "落实": 8406,
      "讲习": 8407,
      "重视": 8408,
      "高兴": 8409,
      "alloc": 8410,
      "itiz": 8411,
      "aries": 8412,
      "dead": 8413,
      "using": 8414,
      "uted": 8415,
      "partners": 8416,
      "gets": 8417,
      "1992": 8418,
      "109": 8419,
      "ished": 8420,
      "understand": 8421,
      "implementing": 8422,
      "informed": 8423,
      "Leban": 8424,
      "purpose": 8425,
      "responsible": 8426,
      "doesn": 8427,
      "strategic": 8428,
      "Israeli": 8429,
      "successful": 8430,
      "Criminal": 8431,
      "的重要性": 8432,
      "Syr": 8433,
      "infrastructure": 8434,
      "Agreement": 8435,
      "formance": 8436,
      "Sudan": 8437,
      "75": 8438,
      "Brit": 8439,
      "CE": 8440,
      "Ph": 8441,
      "Rel": 8442,
      "gun": 8443,
      "jur": 8444,
      "mis": 8445,
      "nic": 8446,
      "rates": 8447,
      "rural": 8448,
      "side": 8449,
      "writ": 8450,
      "价值": 8451,
      "传统": 8452,
      "出去": 8453,
      "历史": 8454,
      "和保护": 8455,
      "复杂": 8456,
      "属于": 8457,
      "工程": 8458,
      "心理": 8459,
      "我就": 8460,
      "数量": 8461,
      "构成": 8462,
      "检查": 8463,
      "立场": 8464,
      "能源": 8465,
      "贸发": 8466,
      "enary": 8467,
      "ased": 8468,
      "young": 8469,
      "team": 8470,
      "ife": 8471,
      "soon": 8472,
      "Institute": 8473,
      "国家和": 8474,
      "mitted": 8475,
      "国际合作": 8476,
      "augh": 8477,
      "regions": 8478,
      "compon": 8479,
      "custo": 8480,
      "site": 8481,
      "ology": 8482,
      "provisional": 8483,
      "strategies": 8484,
      "范围内": 8485,
      "famil": 8486,
      "Justice": 8487,
      "recognized": 8488,
      "functions": 8489,
      "武装冲突": 8490,
      "优先事项": 8491,
      "reflect": 8492,
      "pursuant": 8493,
      "approved": 8494,
      "Cuba": 8495,
      "Geneva": 8496,
      "outside": 8497,
      "//": 8498,
      "Dar": 8499,
      "IL": 8500,
      "Lat": 8501,
      "Since": 8502,
      "fill": 8503,
      "fine": 8504,
      "fire": 8505,
      "mom": 8506,
      "mut": 8507,
      "nance": 8508,
      "sound": 8509,
      "》（": 8510,
      "下来": 8511,
      "主持": 8512,
      "交流": 8513,
      "什麼": 8514,
      "任命": 8515,
      "修正": 8516,
      "农业": 8517,
      "名单": 8518,
      "塞尔": 8519,
      "当事": 8520,
      "我很": 8521,
      "抱歉": 8522,
      "担保": 8523,
      "来文": 8524,
      "核心": 8525,
      "案文": 8526,
      "灾害": 8527,
      "的行动": 8528,
      "的安全": 8529,
      "的承诺": 8530,
      "粮食": 8531,
      "训练": 8532,
      "设备": 8533,
      "起诉": 8534,
      "除了": 8535,
      "enough": 8536,
      "unch": 8537,
      "tees": 8538,
      "web": 8539,
      "export": 8540,
      "amend": 8541,
      "ibbean": 8542,
      "workshop": 8543,
      "cru": 8544,
      "offices": 8545,
      "sessions": 8546,
      "communities": 8547,
      "capital": 8548,
      "Also": 8549,
      "小组委员会": 8550,
      "Caribbean": 8551,
      "evaluation": 8552,
      "appreciation": 8553,
      "Islamic": 8554,
      "iddle": 8555,
      "讲习班": 8556,
      "://": 8557,
      "Jam": 8558,
      "OS": 8559,
      "Som": 8560,
      "Six": 8561,
      "TH": 8562,
      "du": 8563,
      "gal": 8564,
      "ging": 8565,
      "oking": 8566,
      "tp": 8567,
      "ze": 8568,
      "以英": 8569,
      "众国": 8570,
      "依据": 8571,
      "依照": 8572,
      "克斯坦": 8573,
      "此种": 8574,
      "的不": 8575,
      "的经济": 8576,
      "第8": 8577,
      "而言": 8578,
      "遭受": 8579,
      "inking": 8580,
      "enable": 8581,
      "enjo": 8582,
      "expl": 8583,
      "crib": 8584,
      "poses": 8585,
      "Head": 8586,
      "Trib": 8587,
      "conclud": 8588,
      "conduct": 8589,
      "preparation": 8590,
      "http": 8591,
      "connection": 8592,
      "Implementation": 8593,
      "Mexico": 8594,
      "300": 8595,
      "NGO": 8596,
      "ather": 8597,
      "mary": 8598,
      "via": 8599,
      "wise": 8600,
      "不起": 8601,
      "产品": 8602,
      "唯一": 8603,
      "地点": 8604,
      "妈妈": 8605,
      "帝汶": 8606,
      "爱的": 8607,
      "爸爸": 8608,
      "的话": 8609,
      "的目标": 8610,
      "相当": 8611,
      "第15": 8612,
      "职责": 8613,
      "行的": 8614,
      "调整": 8615,
      "那是": 8616,
      "ane": 8617,
      "reme": 8618,
      "energ": 8619,
      "enforcement": 8620,
      "conference": 8621,
      "trying": 8622,
      "anti": 8623,
      "incor": 8624,
      "pression": 8625,
      "Review": 8626,
      "Second": 8627,
      "positive": 8628,
      "人权和": 8629,
      "儿童权利": 8630,
      "Coordin": 8631,
      "paid": 8632,
      "came": 8633,
      "natural": 8634,
      "officials": 8635,
      "electr": 8636,
      "circumstances": 8637,
      "First": 8638,
      "According": 8639,
      "43": 8640,
      "Ge": 8641,
      "Sal": 8642,
      "ait": 8643,
      "fig": 8644,
      "mend": 8645,
      "test": 8646,
      "之外": 8647,
      "予以": 8648,
      "医疗": 8649,
      "反应": 8650,
      "和发展": 8651,
      "基于": 8652,
      "指控": 8653,
      "数额": 8654,
      "特设": 8655,
      "甚至": 8656,
      "立特": 8657,
      "答复": 8658,
      "顾问": 8659,
      "ones": 8660,
      "olid": 8661,
      "loss": 8662,
      "committee": 8663,
      "endit": 8664,
      "option": 8665,
      "istic": 8666,
      "articles": 8667,
      "UNEP": 8668,
      "implemented": 8669,
      "themselves": 8670,
      "transport": 8671,
      "Party": 8672,
      "proposal": 8673,
      "everything": 8674,
      "limited": 8675,
      "Crime": 8676,
      "更多的": 8677,
      "India": 8678,
      "points": 8679,
      "independent": 8680,
      "ruption": 8681,
      "千年发展目标": 8682,
      "后续行动": 8683,
      "Austral": 8684,
      "两性平等": 8685,
      "以英语发言": 8686,
      "Braz": 8687,
      "Cap": 8688,
      "EA": 8689,
      "Nig": 8690,
      "Ur": 8691,
      "Yu": 8692,
      "aut": 8693,
      "cross": 8694,
      "face": 8695,
      "hip": 8696,
      "late": 8697,
      "ned": 8698,
      "sources": 8699,
      "times": 8700,
      "。”": 8701,
      "以为": 8702,
      "出版": 8703,
      "分子": 8704,
      "厄立特": 8705,
      "大利": 8706,
      "大利亚": 8707,
      "威特": 8708,
      "有利": 8709,
      "每年": 8710,
      "澳大利亚": 8711,
      "男女": 8712,
      "科威特": 8713,
      "精神": 8714,
      "维护": 8715,
      "补充": 8716,
      "ery": 8717,
      "altern": 8718,
      "iter": 8719,
      "itself": 8720,
      "vere": 8721,
      "cell": 8722,
      "ung": 8723,
      "paras": 8724,
      "ifying": 8725,
      "plans": 8726,
      "会议上": 8727,
      "Section": 8728,
      "undertaken": 8729,
      "UNF": 8730,
      "views": 8731,
      "提出了": 8732,
      "Space": 8733,
      "calls": 8734,
      "terrorist": 8735,
      "institutional": 8736,
      "economies": 8737,
      "pointed": 8738,
      "experience": 8739,
      "agricult": 8740,
      "厄立特里亚": 8741,
      "65": 8742,
      "EU": 8743,
      "Follow": 8744,
      "Tim": 8745,
      "Uh": 8746,
      "flow": 8747,
      "iation": 8748,
      "labour": 8749,
      "不扩散": 8750,
      "东帝汶": 8751,
      "也不": 8752,
      "人在": 8753,
      "人数": 8754,
      "从事": 8755,
      "做的": 8756,
      "单位": 8757,
      "国民": 8758,
      "尚未": 8759,
      "意大利": 8760,
      "担任": 8761,
      "迅速": 8762,
      "过渡": 8763,
      "ania": 8764,
      "stability": 8765,
      "lost": 8766,
      "teen": 8767,
      "verse": 8768,
      "comments": 8769,
      "performance": 8770,
      "ays": 8771,
      "shad": 8772,
      "qual": 8773,
      "reduce": 8774,
      "Congo": 8775,
      "commission": 8776,
      "overall": 8777,
      "serve": 8778,
      "机构和": 8779,
      "invited": 8780,
      "brief": 8781,
      "行为的": 8782,
      "wanted": 8783,
      "processes": 8784,
      "paragraphs": 8785,
      "facilities": 8786,
      "surve": 8787,
      "promoting": 8788,
      "create": 8789,
      "complete": 8790,
      "gener": 8791,
      "opportunities": 8792,
      "credit": 8793,
      "happened": 8794,
      "与会者": 8795,
      "Countries": 8796,
      "analysis": 8797,
      "effects": 8798,
      "energy": 8799,
      "incorpor": 8800,
      "Brazil": 8801,
      "500": 8802,
      "DA": 8803,
      "MP": 8804,
      "Pak": 8805,
      "paren": 8806,
      "仲裁": 8807,
      "制造": 8808,
      "化学": 8809,
      "只要": 8810,
      "回来": 8811,
      "在此": 8812,
      "增强": 8813,
      "意义": 8814,
      "所涉": 8815,
      "拉夫": 8816,
      "此类": 8817,
      "生效": 8818,
      "科索": 8819,
      "移徙": 8820,
      "第13": 8821,
      "编制": 8822,
      "肯定": 8823,
      "药物": 8824,
      "详细": 8825,
      "足够": 8826,
      "onic": 8827,
      "reaffir": 8828,
      "ica": 8829,
      "stated": 8830,
      "roll": 8831,
      "heard": 8832,
      "separ": 8833,
      "seem": 8834,
      "permanent": 8835,
      "sho": 8836,
      "plenary": 8837,
      "ibilities": 8838,
      "counter": 8839,
      "subs": 8840,
      "活动的": 8841,
      "这一点": 8842,
      "recommends": 8843,
      "recommendation": 8844,
      "destruc": 8845,
      "有效的": 8846,
      "funding": 8847,
      "torture": 8848,
      "适当的": 8849,
      "creation": 8850,
      "Centre": 8851,
      "week": 8852,
      "satis": 8853,
      "curement": 8854,
      "ethnic": 8855,
      "beyond": 8856,
      "Tribunal": 8857,
      "Australia": 8858,
      "科索沃": 8859,
      "OP": 8860,
      "Pac": 8861,
      "Public": 8862,
      "Sci": 8863,
      "West": 8864,
      "hist": 8865,
      "ij": 8866,
      "kes": 8867,
      "你好": 8868,
      "你有": 8869,
      "公正": 8870,
      "基斯坦": 8871,
      "大量": 8872,
      "大多数": 8873,
      "尔兰": 8874,
      "巴基斯坦": 8875,
      "捐款": 8876,
      "有限": 8877,
      "正如": 8878,
      "毒品": 8879,
      "爱尔兰": 8880,
      "第7": 8881,
      "等等": 8882,
      "给你": 8883,
      "ongoing": 8884,
      "reference": 8885,
      "ories": 8886,
      "forced": 8887,
      "prohib": 8888,
      "idance": 8889,
      "plies": 8890,
      "core": 8891,
      "obtain": 8892,
      "identify": 8893,
      "twenty": 8894,
      "design": 8895,
      "higher": 8896,
      "continuing": 8897,
      "weapon": 8898,
      "court": 8899,
      "leader": 8900,
      "posts": 8901,
      "killed": 8902,
      "encourage": 8903,
      "fourth": 8904,
      "instrument": 8905,
      "communications": 8906,
      "father": 8907,
      "holders": 8908,
      "Children": 8909,
      "estimated": 8910,
      "religion": 8911,
      "settlement": 8912,
      "liament": 8913,
      "dollars": 8914,
      "enjoy": 8915,
      "Je": 8916,
      "aj": 8917,
      "categ": 8918,
      "dest": 8919,
      "mic": 8920,
      "ny": 8921,
      "went": 8922,
      "中所": 8923,
      "主权": 8924,
      "也许": 8925,
      "分发": 8926,
      "和联合国": 8927,
      "土耳": 8928,
      "多样": 8929,
      "她们": 8930,
      "她的": 8931,
      "显示": 8932,
      "最终": 8933,
      "有必要": 8934,
      "根本": 8935,
      "的新": 8936,
      "的代表": 8937,
      "网站": 8938,
      "职业": 8939,
      "视为": 8940,
      "让我们": 8941,
      "通信": 8942,
      "）（": 8943,
      "rop": 8944,
      "hell": 8945,
      "proliferation": 8946,
      "looking": 8947,
      "mbass": 8948,
      "Comp": 8949,
      "notes": 8950,
      "doc": 8951,
      "Constitution": 8952,
      "yourself": 8953,
      "guy": 8954,
      "typ": 8955,
      "所有国家": 8956,
      "centres": 8957,
      "month": 8958,
      "standard": 8959,
      "effectiveness": 8960,
      "effort": 8961,
      "conflicts": 8962,
      "civilian": 8963,
      "民主共和国": 8964,
      "Joh": 8965,
      "discussions": 8966,
      "multilateral": 8967,
      "elections": 8968,
      "break": 8969,
      "compensation": 8970,
      "Pakistan": 8971,
      "土耳其": 8972,
      "Have": 8973,
      "SB": 8974,
      "dang": 8975,
      "fair": 8976,
      "rich": 8977,
      "住房": 8978,
      "债权": 8979,
      "南非": 8980,
      "双边": 8981,
      "并将": 8982,
      "成立": 8983,
      "拒绝": 8984,
      "提及": 8985,
      "支出": 8986,
      "明白": 8987,
      "来吧": 8988,
      "的信息": 8989,
      "目的是": 8990,
      "第6": 8991,
      "第七": 8992,
      "类似": 8993,
      "索马里": 8994,
      "而不是": 8995,
      "辩论": 8996,
      "预期": 8997,
      "revised": 8998,
      "arily": 8999,
      "contr": 9000,
      "susp": 9001,
      "trust": 9002,
      "ulate": 9003,
      "whose": 9004,
      "excl": 9005,
      "Inv": 9006,
      "plied": 9007,
      "委员会主席": 9008,
      "regulations": 9009,
      "Cont": 9010,
      "commer": 9011,
      "guys": 9012,
      "offic": 9013,
      "儿童的": 9014,
      "media": 9015,
      "establishing": 9016,
      "violation": 9017,
      "structure": 9018,
      "Prom": 9019,
      "ectoral": 9020,
      "ternal": 9021,
      "initiative": 9022,
      "iversity": 9023,
      "refugees": 9024,
      "私营部门": 9025,
      "referred": 9026,
      "Syrian": 9027,
      "贸发会议": 9028,
      "families": 9029,
      "Pacific": 9030,
      "AP": 9031,
      "CD": 9032,
      "Irel": 9033,
      "citiz": 9034,
      "lie": 9035,
      "oil": 9036,
      "wit": 9037,
      "内亚": 9038,
      "几内亚": 9039,
      "分别": 9040,
      "制裁": 9041,
      "加拉": 9042,
      "医生": 9043,
      "号文件": 9044,
      "和经济": 9045,
      "哪里": 9046,
      "回家": 9047,
      "在联合国": 9048,
      "它的": 9049,
      "尼斯": 9050,
      "尼日": 9051,
      "开放": 9052,
      "数字": 9053,
      "是个": 9054,
      "最高": 9055,
      "有一个": 9056,
      "清楚": 9057,
      "申诉": 9058,
      "的执行情况": 9059,
      "科特": 9060,
      "至关": 9061,
      "记得": 9062,
      "超过": 9063,
      "这类": 9064,
      "适用于": 9065,
      "ising": 9066,
      "det": 9067,
      "consequ": 9068,
      "radi": 9069,
      "urgent": 9070,
      "comed": 9071,
      "ham": 9072,
      "gosla": 9073,
      "rench": 9074,
      "iber": 9075,
      "妇女的": 9076,
      "visit": 9077,
      "governance": 9078,
      "Exper": 9079,
      "hood": 9080,
      "CON": 9081,
      "value": 9082,
      "Political": 9083,
      "welcomed": 9084,
      "complain": 9085,
      "words": 9086,
      "profession": 9087,
      "suggest": 9088,
      "proceedings": 9089,
      "和平与安全": 9090,
      "sectors": 9091,
      "Yugosla": 9092,
      "destruction": 9093,
      "Ireland": 9094,
      "64": 9095,
      "Cult": 9096,
      "IA": 9097,
      "Ko": 9098,
      "range": 9099,
      "一届会议": 9100,
      "不用": 9101,
      "与发展": 9102,
      "专题": 9103,
      "享受": 9104,
      "他在": 9105,
      "你可以": 9106,
      "保险": 9107,
      "南斯": 9108,
      "合理": 9109,
      "商定": 9110,
      "增进": 9111,
      "处于": 9112,
      "寻求": 9113,
      "效率": 9114,
      "斯洛": 9115,
      "有可能": 9116,
      "本身": 9117,
      "模式": 9118,
      "污染": 9119,
      "的合作": 9120,
      "的基础": 9121,
      "袭击": 9122,
      "通常": 9123,
      "ont": 9124,
      "inno": 9125,
      "restr": 9126,
      "ature": 9127,
      "ero": 9128,
      "alk": 9129,
      "along": 9130,
      "ece": 9131,
      "acter": 9132,
      "conv": 9133,
      "ably": 9134,
      "whom": 9135,
      "illicit": 9136,
      "indust": 9137,
      "presented": 9138,
      "guidance": 9139,
      "世界银行": 9140,
      "政策和": 9141,
      "建立一个": 9142,
      "participants": 9143,
      "scope": 9144,
      "addressing": 9145,
      "人口基金": 9146,
      "claims": 9147,
      "asked": 9148,
      "告诉我": 9149,
      "过程中": 9150,
      "seventh": 9151,
      "Education": 9152,
      "Kuwait": 9153,
      "南斯拉夫": 9154,
      "Every": 9155,
      "Gre": 9156,
      "IP": 9157,
      "billion": 9158,
      "cand": 9159,
      "coura": 9160,
      "die": 9161,
      "sn": 9162,
      "ses": 9163,
      "ye": 9164,
      "下降": 9165,
      "亲爱的": 9166,
      "他说": 9167,
      "力量": 9168,
      "和建议": 9169,
      "有权": 9170,
      "殖民": 9171,
      "的项目": 9172,
      "的行为": 9173,
      "管辖": 9174,
      "系列": 9175,
      "观点": 9176,
      "这次": 9177,
      "避免": 9178,
      "降低": 9179,
      "ats": 9180,
      "ites": 9181,
      "arbit": 9182,
      "stake": 9183,
      "deep": 9184,
      "rather": 9185,
      "perform": 9186,
      "extra": 9187,
      "regime": 9188,
      "dissemin": 9189,
      "critical": 9190,
      "ancy": 9191,
      "supply": 9192,
      "submission": 9193,
      "saw": 9194,
      "特别代表": 9195,
      "consolid": 9196,
      "采取行动": 9197,
      "采取措施": 9198,
      "situations": 9199,
      "adopt": 9200,
      "的一项": 9201,
      "ought": 9202,
      "提交人": 9203,
      "purposes": 9204,
      "tenance": 9205,
      "priorities": 9206,
      "morning": 9207,
      "objective": 9208,
      "种族主义": 9209,
      "tempor": 9210,
      "compliance": 9211,
      "实际上": 9212,
      "ptional": 9213,
      "Support": 9214,
      "elements": 9215,
      "substantial": 9216,
      "事实上": 9217,
      "deployment": 9218,
      "changes": 9219,
      "Ambass": 9220,
      "Draft": 9221,
      "Hi": 9222,
      "OR": 9223,
      "Our": 9224,
      "Such": 9225,
      "Take": 9226,
      "bound": 9227,
      "bilateral": 9228,
      "fn": 9229,
      "fsc": 9230,
      "round": 9231,
      "sou": 9232,
      "va": 9233,
      "wife": 9234,
      "事情": 9235,
      "使其": 9236,
      "出了": 9237,
      "吁请": 9238,
      "向大会": 9239,
      "在国家": 9240,
      "埃及": 9241,
      "大使": 9242,
      "大规模": 9243,
      "女性": 9244,
      "对其": 9245,
      "待遇": 9246,
      "救济": 9247,
      "显然": 9248,
      "有一": 9249,
      "来越": 9250,
      "核准": 9251,
      "死了": 9252,
      "比例": 9253,
      "理解": 9254,
      "的任务": 9255,
      "石油": 9256,
      "群岛": 9257,
      "货币": 9258,
      "起草": 9259,
      "越来越": 9260,
      "酌情": 9261,
      "马拉": 9262,
      "ination": 9263,
      "remember": 9264,
      "itable": 9265,
      "town": 9266,
      "forth": 9267,
      "demon": 9268,
      "tered": 9269,
      "abuse": 9270,
      "国际组织": 9271,
      "国际公约": 9272,
      "inea": 9273,
      "特别会议": 9274,
      "getting": 9275,
      "occur": 9276,
      "人权事务": 9277,
      "intention": 9278,
      "maintenance": 9279,
      "expendit": 9280,
      "Code": 9281,
      "怎么样": 9282,
      "receive": 9283,
      "Guinea": 9284,
      "6月30日": 9285,
      "advance": 9286,
      "appear": 9287,
      "组成部分": 9288,
      "similar": 9289,
      "improving": 9290,
      "consistent": 9291,
      "Strateg": 9292,
      "vulnerable": 9293,
      "ensus": 9294,
      "Phil": 9295,
      "cribed": 9296,
      "Au": 9297,
      "Roman": 9298,
      "mess": 9299,
      "rid": 9300,
      "sched": 9301,
      "uth": 9302,
      "yo": 9303,
      "为止": 9304,
      "以后": 9305,
      "以确保": 9306,
      "切实": 9307,
      "创造": 9308,
      "各自": 9309,
      "媒体": 9310,
      "子女": 9311,
      "就会": 9312,
      "律师": 9313,
      "投票": 9314,
      "收集": 9315,
      "是什么": 9316,
      "机关": 9317,
      "杀了": 9318,
      "没错": 9319,
      "的要求": 9320,
      "示范": 9321,
      "筹资": 9322,
      "腐败": 9323,
      "边界": 9324,
      "随后": 9325,
      "青年": 9326,
      "，“": 9327,
      "ands": 9328,
      "tool": 9329,
      "tomor": 9330,
      "vered": 9331,
      "super": 9332,
      "universal": 9333,
      "appoint": 9334,
      "sharing": 9335,
      "prise": 9336,
      "neigh": 9337,
      "Stand": 9338,
      "commod": 9339,
      "Any": 9340,
      "decl": 9341,
      "includes": 9342,
      "informal": 9343,
      "seek": 9344,
      "avo": 9345,
      "aving": 9346,
      "balance": 9347,
      "的一些": 9348,
      "Force": 9349,
      "direc": 9350,
      "takes": 9351,
      "extent": 9352,
      "这样的": 9353,
      "class": 9354,
      "plications": 9355,
      "我不知道": 9356,
      "products": 9357,
      "collaboration": 9358,
      "caused": 9359,
      "encouraged": 9360,
      "challenge": 9361,
      "strengthened": 9362,
      "第四十": 9363,
      "distribution": 9364,
      "Author": 9365,
      "tomorrow": 9366,
      "88": 9367,
      "Eth": 9368,
      "Four": 9369,
      "Kore": 9370,
      "Tw": 9371,
      "Ter": 9372,
      "Wait": 9373,
      "bed": 9374,
      "dy": 9375,
      "fem": 9376,
      "ique": 9377,
      "lives": 9378,
      "sanc": 9379,
      "信仰": 9380,
      "去了": 9381,
      "多的": 9382,
      "大约": 9383,
      "太平": 9384,
      "审判": 9385,
      "尼西亚": 9386,
      "干事": 9387,
      "我还": 9388,
      "挪威": 9389,
      "损失": 9390,
      "放在": 9391,
      "查明": 9392,
      "比利": 9393,
      "语言": 9394,
      "资助": 9395,
      "迪瓦": 9396,
      "遗憾": 9397,
      "障碍": 9398,
      "erad": 9399,
      "stream": 9400,
      "procurement": 9401,
      "rad": 9402,
      "atell": 9403,
      "aps": 9404,
      "lling": 9405,
      "我们要": 9406,
      "发展和": 9407,
      "Italy": 9408,
      "subsequ": 9409,
      "travel": 9410,
      "requires": 9411,
      "15日": 9412,
      "boy": 9413,
      "世界首脑会议": 9414,
      "throughout": 9415,
      "akes": 9416,
      "ogn": 9417,
      "peaceful": 9418,
      "武器和": 9419,
      "全球化": 9420,
      "specialized": 9421,
      "continues": 9422,
      "Goals": 9423,
      "建设和平": 9424,
      "高级别": 9425,
      "种族歧视": 9426,
      "Discrimination": 9427,
      "interests": 9428,
      "voluntary": 9429,
      "stead": 9430,
      "relationship": 9431,
      "companies": 9432,
      "leadership": 9433,
      "科特迪瓦": 9434,
      "demonstr": 9435,
      "太平洋": 9436,
      "Bang": 9437,
      "Dep": 9438,
      "Egy": 9439,
      "ME": 9440,
      "TO": 9441,
      "bar": 9442,
      "cause": 9443,
      "hop": 9444,
      "sens": 9445,
      "tas": 9446,
      "wan": 9447,
      "上午": 9448,
      "不错": 9449,
      "他妈的": 9450,
      "似乎": 9451,
      "全部": 9452,
      "出来": 9453,
      "各级": 9454,
      "商品": 9455,
      "团体": 9456,
      "在执行": 9457,
      "在内的": 9458,
      "常设": 9459,
      "当时": 9460,
      "意识": 9461,
      "拉丁": 9462,
      "拘留": 9463,
      "指南": 9464,
      "有的": 9465,
      "概念": 9466,
      "现实": 9467,
      "的联合国": 9468,
      "的资料": 9469,
      "第17": 9470,
      "remo": 9471,
      "ison": 9472,
      "ised": 9473,
      "illegal": 9474,
      "00美元": 9475,
      "raise": 9476,
      "advant": 9477,
      "tel": 9478,
      "goal": 9479,
      "Int": 9480,
      "uting": 9481,
      "intergovernmental": 9482,
      "联合国宪章": 9483,
      "Note": 9484,
      "server": 9485,
      "firm": 9486,
      "goods": 9487,
      "有效地": 9488,
      "responsibilities": 9489,
      "Palestine": 9490,
      "hands": 9491,
      "indicated": 9492,
      "achievement": 9493,
      "legislative": 9494,
      "conducted": 9495,
      "fifth": 9496,
      "Management": 9497,
      "substantive": 9498,
      "religious": 9499,
      "alleged": 9500,
      "primary": 9501,
      "productive": 9502,
      "更好地": 9503,
      "Lebanon": 9504,
      "Timor": 9505,
      "Ambassador": 9506,
      "Egypt": 9507,
      "%。": 9508,
      "During": 9509,
      "Ha": 9510,
      "Hol": 9511,
      "SP": 9512,
      "Vice": 9513,
      "eigh": 9514,
      "gone": 9515,
      "hun": 9516,
      "hur": 9517,
      "iency": 9518,
      "zone": 9519,
      "》(": 9520,
      "事规则": 9521,
      "伤害": 9522,
      "体系": 9523,
      "作了": 9524,
      "依然": 9525,
      "公众": 9526,
      "原子": 9527,
      "后果": 9528,
      "团结": 9529,
      "在该": 9530,
      "塞拉": 9531,
      "持久": 9532,
      "损害": 9533,
      "更正": 9534,
      "最佳": 9535,
      "未能": 9536,
      "清单": 9537,
      "爆炸": 9538,
      "的地方": 9539,
      "私人": 9540,
      "第10": 9541,
      "第12": 9542,
      "者和": 9543,
      "规范": 9544,
      "许可": 9545,
      "赋予": 9546,
      "跨国": 9547,
      "达尔": 9548,
      "onia": 9549,
      "rew": 9550,
      "itial": 9551,
      "isn": 9552,
      "entr": 9553,
      "acqu": 9554,
      "resol": 9555,
      "constit": 9556,
      "shit": 9557,
      "会议室": 9558,
      "actually": 9559,
      "internal": 9560,
      "报告中": 9561,
      "Those": 9562,
      "developments": 9563,
      "displaced": 9564,
      "ipp": 9565,
      "legit": 9566,
      "minimum": 9567,
      "Chief": 9568,
      "区域和": 9569,
      "activity": 9570,
      "的一部分": 9571,
      "系统的": 9572,
      "服务的": 9573,
      "aware": 9574,
      "scale": 9575,
      "More": 9576,
      "专家组": 9577,
      "leaders": 9578,
      "limit": 9579,
      "carry": 9580,
      "technologies": 9581,
      "complex": 9582,
      "focused": 9583,
      "character": 9584,
      "一般性": 9585,
      "appeal": 9586,
      "ING": 9587,
      "reflected": 9588,
      "emerging": 9589,
      "Persons": 9590,
      "spoke": 9591,
      "electronic": 9592,
      "UNFPA": 9593,
      "temporary": 9594,
      "212": 9595,
      "78": 9596,
      "French": 9597,
      "Slo": 9598,
      "WG": 9599,
      "cou": 9600,
      "duce": 9601,
      "duty": 9602,
      "gment": 9603,
      "mical": 9604,
      "pred": 9605,
      "win": 9606,
      "一年": 9607,
      "不了": 9608,
      "价格": 9609,
      "会的": 9610,
      "你能": 9611,
      "你还": 9612,
      "停止": 9613,
      "几个": 9614,
      "利坚": 9615,
      "助理": 9616,
      "卢旺": 9617,
      "及时": 9618,
      "双方": 9619,
      "如下": 9620,
      "官方": 9621,
      "对不起": 9622,
      "工业": 9623,
      "总体": 9624,
      "接触": 9625,
      "明显": 9626,
      "是谁": 9627,
      "期待": 9628,
      "检察": 9629,
      "满意": 9630,
      "用的": 9631,
      "确实": 9632,
      "磋商": 9633,
      "罪行": 9634,
      "美利坚": 9635,
      "英国": 9636,
      "获取": 9637,
      "评论": 9638,
      "诉讼": 9639,
      "语文": 9640,
      "运作": 9641,
      "这就是": 9642,
      "集体": 9643,
      "食物": 9644,
      "inst": 9645,
      "recru": 9646,
      "offe": 9647,
      "conven": 9648,
      "iding": 9649,
      "agency": 9650,
      "oph": 9651,
      "covered": 9652,
      "registr": 9653,
      "known": 9654,
      "phys": 9655,
      "forest": 9656,
      "权利的": 9657,
      "expect": 9658,
      "promise": 9659,
      "confidence": 9660,
      "surance": 9661,
      "怎么了": 9662,
      "possibility": 9663,
      "paign": 9664,
      "Recom": 9665,
      "Recogn": 9666,
      "brother": 9667,
      "sixth": 9668,
      "debate": 9669,
      "majority": 9670,
      "1996年": 9671,
      "Resolution": 9672,
      "印度尼西亚": 9673,
      "Belg": 9674,
      "1990年": 9675,
      "lerance": 9676,
      "raised": 9677,
      "阿尔及": 9678,
      "实质性": 9679,
      "detailed": 9680,
      "Latin": 9681,
      "Promo": 9682,
      "candid": 9683,
      "拉丁美洲": 9684,
      "卢旺达": 9685,
      "1日": 9686,
      "AM": 9687,
      "CP": 9688,
      "Jud": 9689,
      "OK": 9690,
      "Sorry": 9691,
      "Vol": 9692,
      "bl": 9693,
      "bul": 9694,
      "cut": 9695,
      "flo": 9696,
      "hours": 9697,
      "oh": 9698,
      "pain": 9699,
      "swe": 9700,
      "ua": 9701,
      "一位": 9702,
      "不可能": 9703,
      "即使": 9704,
      "和管理": 9705,
      "定义": 9706,
      "尽可能": 9707,
      "差距": 9708,
      "应在": 9709,
      "意味": 9710,
      "感觉": 9711,
      "我能": 9712,
      "是啊": 9713,
      "有什么": 9714,
      "汇编": 9715,
      "海地": 9716,
      "消费": 9717,
      "的主": 9718,
      "的政治": 9719,
      "资本": 9720,
      "通报": 9721,
      "重建": 9722,
      "rete": 9723,
      "iles": 9724,
      "adjust": 9725,
      "abs": 9726,
      "ieth": 9727,
      "Asian": 9728,
      "ciliation": 9729,
      "supporting": 9730,
      "Decides": 9731,
      "秘书长关于": 9732,
      "expand": 9733,
      "intell": 9734,
      "的一切": 9735,
      "相关的": 9736,
      "paper": 9737,
      "discussed": 9738,
      "决议草案A": 9739,
      "CCC": 9740,
      "领导人": 9741,
      "规划署": 9742,
      "independence": 9743,
      "Swed": 9744,
      "透明度": 9745,
      "language": 9746,
      "transparency": 9747,
      "CONF": 9748,
      "Koso": 9749,
      "Korea": 9750,
      "比利时": 9751,
      "美利坚合": 9752,
      "Am": 9753,
      "Cro": 9754,
      "Nuclear": 9755,
      "Of": 9756,
      "Ques": 9757,
      "Stop": 9758,
      "fall": 9759,
      "gative": 9760,
      "huh": 9761,
      "rist": 9762,
      "tes": 9763,
      "以期": 9764,
      "信任": 9765,
      "印发": 9766,
      "只能": 9767,
      "各个": 9768,
      "在一起": 9769,
      "容易": 9770,
      "居民": 9771,
      "工资": 9772,
      "带来": 9773,
      "我有": 9774,
      "无论": 9775,
      "明天": 9776,
      "法治": 9777,
      "流动": 9778,
      "父母": 9779,
      "生命": 9780,
      "的资源": 9781,
      "看法": 9782,
      "福利": 9783,
      "第14": 9784,
      "自治": 9785,
      "致力": 9786,
      "贩卖": 9787,
      "迄今": 9788,
      "都有": 9789,
      "驱逐": 9790,
      "anish": 9791,
      "enabl": 9792,
      "alone": 9793,
      "alities": 9794,
      "isters": 9795,
      "entry": 9796,
      "stage": 9797,
      "resource": 9798,
      "urban": 9799,
      "trial": 9800,
      "chang": 9801,
      "percent": 9802,
      "parts": 9803,
      "Indon": 9804,
      "incident": 9805,
      "elected": 9806,
      "Third": 9807,
      "recall": 9808,
      "relation": 9809,
      "consensus": 9810,
      "publication": 9811,
      "Governing": 9812,
      "可能会": 9813,
      "如果你": 9814,
      "represented": 9815,
      "although": 9816,
      "教育和": 9817,
      "personal": 9818,
      "saying": 9819,
      "longer": 9820,
      "Serb": 9821,
      "created": 9822,
      "Guide": 9823,
      "obligation": 9824,
      "indicators": 9825,
      "1973": 9826,
      "holding": 9827,
      "…………": 9828,
      "第1款": 9829,
      "Room": 9830,
      "achieving": 9831,
      "occupied": 9832,
      "directly": 9833,
      "easy": 9834,
      "partnerships": 9835,
      "delivery": 9836,
      "Docu": 9837,
      "刚果民主共和国": 9838,
      "habilit": 9839,
      "punishment": 9840,
      "Somalia": 9841,
      "vereign": 9842,
      "John": 9843,
      "原子能": 9844,
      "Recommend": 9845,
      "Indones": 9846,
      "%，": 9847,
      "Ibid": 9848,
      "La": 9849,
      "Les": 9850,
      "OU": 9851,
      "ered": 9852,
      "fle": 9853,
      "sle": 9854,
      "tro": 9855,
      "yl": 9856,
      "yeah": 9857,
      "不利": 9858,
      "克兰": 9859,
      "分钟": 9860,
      "基地": 9861,
      "多少": 9862,
      "大部分": 9863,
      "容忍": 9864,
      "富尔": 9865,
      "年龄": 9866,
      "攻击": 9867,
      "正常": 9868,
      "比较": 9869,
      "瑞典": 9870,
      "的会议": 9871,
      "的执行": 9872,
      "的决定": 9873,
      "的机会": 9874,
      "直到": 9875,
      "破产": 9876,
      "计算": 9877,
      "initial": 9878,
      "attem": 9879,
      "argu": 9880,
      "prosec": 9881,
      "teach": 9882,
      "try": 9883,
      "portion": 9884,
      "apons": 9885,
      "haven": 9886,
      "usive": 9887,
      "kets": 9888,
      "1967": 9889,
      "ama": 9890,
      "wasn": 9891,
      "委员会建议": 9892,
      "max": 9893,
      "disp": 9894,
      "disaster": 9895,
      "pread": 9896,
      "crimes": 9897,
      "Weapons": 9898,
      "myself": 9899,
      "concrete": 9900,
      "方案和": 9901,
      "phone": 9902,
      "2015": 9903,
      "offer": 9904,
      "这一问题": 9905,
      "company": 9906,
      "medical": 9907,
      "Islands": 9908,
      "技术援助": 9909,
      "提交的": 9910,
      "举行了": 9911,
      "civilians": 9912,
      "collective": 9913,
      "accountability": 9914,
      "sixty": 9915,
      "payment": 9916,
      "Joint": 9917,
      "CRC": 9918,
      "Prevention": 9919,
      "approval": 9920,
      "single": 9921,
      "racial": 9922,
      "scientific": 9923,
      "conventions": 9924,
      "Furthermore": 9925,
      "puts": 9926,
      "rapid": 9927,
      "Assistance": 9928,
      "juris": 9929,
      "出版物": 9930,
      "subsid": 9931,
      "Authority": 9932,
      "Introduc": 9933,
      "达尔富尔": 9934,
      "意味着": 9935,
      "Kosovo": 9936,
      "美利坚合众国": 9937,
      "1shad": 9938,
      "74": 9939,
      "99": 9940,
      "Ben": 9941,
      "Est": 9942,
      "HCR": 9943,
      "Land": 9944,
      "Med": 9945,
      "Sur": 9946,
      "band": 9947,
      "city": 9948,
      "gave": 9949,
      "giving": 9950,
      "hit": 9951,
      "lay": 9952,
      "mag": 9953,
      "ps": 9954,
      "tim": 9955,
      "watch": 9956,
      "“(": 9957,
      "上帝": 9958,
      "上文": 9959,
      "与其他": 9960,
      "今晚": 9961,
      "你会": 9962,
      "你看": 9963,
      "信道": 9964,
      "候选": 9965,
      "减轻": 9966,
      "剥夺": 9967,
      "南部": 9968,
      "号和": 9969,
      "同上": 9970,
      "和解": 9971,
      "学生": 9972,
      "情报": 9973,
      "提请": 9974,
      "新西": 9975,
      "是不": 9976,
      "期限": 9977,
      "波斯": 9978,
      "的社会": 9979,
      "的结果": 9980,
      "第9": 9981,
      "第11": 9982,
      "经历": 9983,
      "荒漠": 9984,
      "虐待": 9985,
      "货物": 9986,
      "除非": 9987,
      "额外": 9988,
      "：「": 9989,
      "inth": 9990,
      "ern": 9991,
      "esh": 9992,
      "estern": 9993,
      "ouble": 9994,
      "true": 9995,
      "ately": 9996,
      "atever": 9997,
      "agg": 9998,
      "ague": 9999,
      "external": 10000,
      "ival": 10001,
      "sovereign": 10002,
      "联合国的": 10003,
      "Reaffir": 10004,
      "spir": 10005,
      "ureau": 10006,
      "ord1shad": 10007,
      "政府和": 10008,
      "机构间": 10009,
      "UNHCR": 10010,
      "minutes": 10011,
      "Chapter": 10012,
      "Christ": 10013,
      "方案预算": 10014,
      "grat": 10015,
      "Although": 10016,
      "talking": 10017,
      "信息和": 10018,
      "practical": 10019,
      "取得了": 10020,
      "1989": 10021,
      "Members": 10022,
      "corpor": 10023,
      "框架内": 10024,
      "enhancing": 10025,
      "consultation": 10026,
      "Police": 10027,
      "imately": 10028,
      "prison": 10029,
      "reached": 10030,
      "determination": 10031,
      "racism": 10032,
      "improved": 10033,
      "cooperate": 10034,
      "traditional": 10035,
      "Nigeria": 10036,
      "commercial": 10037,
      "atellite": 10038,
      "wanna": 10039,
      "Belgium": 10040,
      "1日至": 10041,
      "83": 10042,
      "Aud": 10043,
      "Cam": 10044,
      "DD": 10045,
      "Ken": 10046,
      "Port": 10047,
      "ST": 10048,
      "Ste": 10049,
      "Sier": 10050,
      "Ug": 10051,
      "WA": 10052,
      "creat": 10053,
      "eat": 10054,
      "eal": 10055,
      "fur": 10056,
      "gro": 10057,
      "iop": 10058,
      "iers": 10059,
      "knew": 10060,
      "umb": 10061,
      "中非": 10062,
      "之中": 10063,
      "信托": 10064,
      "利昂": 10065,
      "同一": 10066,
      "在这些": 10067,
      "地亚": 10068,
      "岛屿": 10069,
      "年轻": 10070,
      "当前": 10071,
      "很大": 10072,
      "我没": 10073,
      "择议定书": 10074,
      "数目": 10075,
      "日益": 10076,
      "是对": 10077,
      "最低": 10078,
      "有所": 10079,
      "权的": 10080,
      "欧元": 10081,
      "法令": 10082,
      "照顾": 10083,
      "的支持": 10084,
      "第18": 10085,
      "结婚": 10086,
      "缅甸": 10087,
      "而是": 10088,
      "脆弱": 10089,
      "表现": 10090,
      "该地区": 10091,
      "集中": 10092,
      "anks": 10093,
      "rein": 10094,
      "ening": 10095,
      "arrest": 10096,
      "entire": 10097,
      "ases": 10098,
      "ster": 10099,
      "fort": 10100,
      "forum": 10101,
      "accep": 10102,
      "dem": 10103,
      "constitution": 10104,
      "truth": 10105,
      "chapter": 10106,
      "gov": 10107,
      "goes": 10108,
      "near": 10109,
      "negative": 10110,
      "petr": 10111,
      "presence": 10112,
      "Noting": 10113,
      "ously": 10114,
      "UNM": 10115,
      "经济和社会": 10116,
      "likely": 10117,
      "Adoption": 10118,
      "drawn": 10119,
      "central": 10120,
      "秘书长的报告": 10121,
      "useful": 10122,
      "territories": 10123,
      "的一般": 10124,
      "武器的": 10125,
      "非洲联盟": 10126,
      "Leone": 10127,
      "研究所": 10128,
      "capacities": 10129,
      "signed": 10130,
      "imply": 10131,
      "第一次": 10132,
      "remained": 10133,
      "enhanced": 10134,
      "From": 10135,
      "happy": 10136,
      "positions": 10137,
      "告诉你": 10138,
      "encourages": 10139,
      "Elimination": 10140,
      "Norway": 10141,
      "schools": 10142,
      "occupation": 10143,
      "Maur": 10144,
      "exploitation": 10145,
      "freedoms": 10146,
      "Corr": 10147,
      "audi": 10148,
      "劳动力": 10149,
      "phase": 10150,
      "Drug": 10151,
      "常驻联合国": 10152,
      "campaign": 10153,
      "Britain": 10154,
      "工程处": 10155,
      "explain": 10156,
      "teenth": 10157,
      "citizens": 10158,
      "Ethiop": 10159,
      "sanctions": 10160,
      "致力于": 10161,
      "Indonesia": 10162,
      "新西兰": 10163,
      "Sierra": 10164,
      "95": 10165,
      "Calls": 10166,
      "Hab": 10167,
      "IM": 10168,
      "Optional": 10169,
      "Po": 10170,
      "Sim": 10171,
      "Tun": 10172,
      "ded": 10173,
      "effic": 10174,
      "hind": 10175,
      "hous": 10176,
      "iage": 10177,
      "mm": 10178,
      "sw": 10179,
      "sal": 10180,
      "usu": 10181,
      "举措": 10182,
      "也纳": 10183,
      "付款": 10184,
      "任择议定书": 10185,
      "克罗": 10186,
      "决于": 10187,
      "发了": 10188,
      "取决于": 10189,
      "受理": 10190,
      "另一个": 10191,
      "启动": 10192,
      "哥伦": 10193,
      "国籍": 10194,
      "将其": 10195,
      "将继续": 10196,
      "就像": 10197,
      "引起": 10198,
      "强制": 10199,
      "律宾": 10200,
      "怎样": 10201,
      "我可以": 10202,
      "指定": 10203,
      "旅行": 10204,
      "日期": 10205,
      "時候": 10206,
      "未经": 10207,
      "治疗": 10208,
      "的挑战": 10209,
      "突尼斯": 10210,
      "维也纳": 10211,
      "荷兰": 10212,
      "菲律宾": 10213,
      "补救": 10214,
      "议事规则": 10215,
      "设法": 10216,
      "资格": 10217,
      "趋势": 10218,
      "转移": 10219,
      "thir": 10220,
      "ony": 10221,
      "inf": 10222,
      "infl": 10223,
      "indeed": 10224,
      "rev": 10225,
      "ouch": 10226,
      "across": 10227,
      "conform": 10228,
      "iful": 10229,
      "委员会在": 10230,
      "我们认为": 10231,
      "发展援助": 10232,
      "Cons": 10233,
      "contact": 10234,
      "internationally": 10235,
      "ancial": 10236,
      "subregional": 10237,
      "UNID": 10238,
      "declaration": 10239,
      "donor": 10240,
      "attach": 10241,
      "资源的": 10242,
      "解决办法": 10243,
      "我不能": 10244,
      "事务厅": 10245,
      "everyone": 10246,
      "ritory": 10247,
      "involvement": 10248,
      "solv": 10249,
      "Financial": 10250,
      "applicable": 10251,
      "clearly": 10252,
      "缔约方会议": 10253,
      "approaches": 10254,
      "tonight": 10255,
      "Services": 10256,
      "维持和平行动": 10257,
      "raising": 10258,
      "harmon": 10259,
      "migration": 10260,
      "associated": 10261,
      "favour": 10262,
      "Official": 10263,
      "Turkey": 10264,
      "reservation": 10265,
      "parents": 10266,
      "witness": 10267,
      "尼日利亚": 10268,
      "Territory": 10269,
      "Deputy": 10270,
      "阿尔及利亚": 10271,
      "Introduction": 10272,
      "荒漠化": 10273,
      "Ethiopia": 10274,
      "($": 10275,
      "6日": 10276,
      "89": 10277,
      "Bas": 10278,
      "Bec": 10279,
      "DE": 10280,
      "Ivo": 10281,
      "Net": 10282,
      "Qu": 10283,
      "Rw": 10284,
      "VI": 10285,
      "aH": 10286,
      "fel": 10287,
      "gar": 10288,
      "gain": 10289,
      "ken": 10290,
      "nice": 10291,
      "ninth": 10292,
      "pd": 10293,
      "source": 10294,
      "ufact": 10295,
      "。」": 10296,
      "不好": 10297,
      "中央": 10298,
      "二十": 10299,
      "人都": 10300,
      "以上": 10301,
      "以外": 10302,
      "修改": 10303,
      "决心": 10304,
      "几乎": 10305,
      "分摊": 10306,
      "名义": 10307,
      "和我": 10308,
      "和黑": 10309,
      "和区域": 10310,
      "回应": 10311,
      "在过去": 10312,
      "将会": 10313,
      "应用": 10314,
      "延长": 10315,
      "快点": 10316,
      "意愿": 10317,
      "时期": 10318,
      "沙特": 10319,
      "瑞士": 10320,
      "疾病": 10321,
      "的发言": 10322,
      "的责任": 10323,
      "的基本": 10324,
      "的结论": 10325,
      "职位": 10326,
      "西非": 10327,
      "解除": 10328,
      "身体": 10329,
      "转型": 10330,
      "遭到": 10331,
      "阻止": 10332,
      "难以": 10333,
      "飞机": 10334,
      "anmar": 10335,
      "enna": 10336,
      "eries": 10337,
      "forty": 10338,
      "log": 10339,
      "advisory": 10340,
      "weak": 10341,
      "persp": 10342,
      "therlands": 10343,
      "front": 10344,
      "utor": 10345,
      "rence": 10346,
      "elimination": 10347,
      "discrimin": 10348,
      "disabilities": 10349,
      "tax": 10350,
      "以及在": 10351,
      "supposed": 10352,
      "Chile": 10353,
      "membership": 10354,
      "技术合作": 10355,
      "Spain": 10356,
      "governments": 10357,
      "Alg": 10358,
      "你们的": 10359,
      "这样做": 10360,
      "faction": 10361,
      "Legal": 10362,
      "placement": 10363,
      "Bosn": 10364,
      "Netherlands": 10365,
      "courts": 10366,
      "Myanmar": 10367,
      "消除对妇女": 10368,
      "recognize": 10369,
      "welcome": 10370,
      "charge": 10371,
      "人道主义法": 10372,
      "After": 10373,
      "culture": 10374,
      "competent": 10375,
      "multi": 10376,
      "1998年": 10377,
      "closely": 10378,
      "介绍了": 10379,
      "emergency": 10380,
      "conclusions": 10381,
      "audit": 10382,
      "failure": 10383,
      "expertise": 10384,
      "baby": 10385,
      "methods": 10386,
      "Fifth": 10387,
      "Hello": 10388,
      "started": 10389,
      "guarantee": 10390,
      "至关重要": 10391,
      "stakeholders": 10392,
      "Philipp": 10393,
      "塞拉利昂": 10394,
      "registration": 10395,
      "Croat": 10396,
      "troop": 10397,
      "Tunis": 10398,
      "哥伦比亚": 10399,
      "solvency": 10400,
      "Ivoire": 10401,
      "Bud": 10402,
      "Cy": 10403,
      "Fam": 10404,
      "Gr": 10405,
      "List": 10406,
      "Miss": 10407,
      "Out": 10408,
      "Sam": 10409,
      "TR": 10410,
      "War": 10411,
      "aver": 10412,
      "daugh": 10413,
      "ka": 10414,
      "ric": 10415,
      "skill": 10416,
      "uff": 10417,
      "不行": 10418,
      "中期": 10419,
      "主题": 10420,
      "乌干": 10421,
      "九届会议": 10422,
      "利比": 10423,
      "协作": 10424,
      "各位": 10425,
      "名字": 10426,
      "听取": 10427,
      "和非": 10428,
      "和有关": 10429,
      "和相关": 10430,
      "和文化": 10431,
      "地雷": 10432,
      "失踪": 10433,
      "干预": 10434,
      "干什么": 10435,
      "彻底": 10436,
      "我看": 10437,
      "截至": 10438,
      "斗争": 10439,
      "是你": 10440,
      "智利": 10441,
      "根廷": 10442,
      "毛里": 10443,
      "永远": 10444,
      "沒有": 10445,
      "男人": 10446,
      "痛苦": 10447,
      "的儿童": 10448,
      "的时间": 10449,
      "研讨": 10450,
      "筹措": 10451,
      "蒙特": 10452,
      "说的": 10453,
      "跟我": 10454,
      "适应": 10455,
      "途径": 10456,
      "阿根廷": 10457,
      "随着": 10458,
      "rely": 10459,
      "renew": 10460,
      "ense": 10461,
      "oub": 10462,
      "oud": 10463,
      "states": 10464,
      "behind": 10465,
      "concept": 10466,
      "lying": 10467,
      "ury": 10468,
      "chap": 10469,
      "check": 10470,
      "perpetr": 10471,
      "applied": 10472,
      "quick": 10473,
      "Inte": 10474,
      "plom": 10475,
      "rend": 10476,
      "委员会还": 10477,
      "委员会的报告": 10478,
      "我们还": 10479,
      "outstanding": 10480,
      "cot": 10481,
      "发展的": 10482,
      "president": 10483,
      "assign": 10484,
      "type": 10485,
      "intended": 10486,
      "donors": 10487,
      "undi": 10488,
      "权利和": 10489,
      "timely": 10490,
      "reasons": 10491,
      "becom": 10492,
      "Argent": 10493,
      "审议了": 10494,
      "协调员": 10495,
      "surv": 10496,
      "treaties": 10497,
      "年12月31日": 10498,
      "assessed": 10499,
      "norm": 10500,
      "solid": 10501,
      "fields": 10502,
      "combating": 10503,
      "1997年": 10504,
      "actively": 10505,
      "grounds": 10506,
      "investigation": 10507,
      "Like": 10508,
      "我国代表团": 10509,
      "safegu": 10510,
      "Administration": 10511,
      "Terror": 10512,
      "beginning": 10513,
      "ladesh": 10514,
      "流离失所者": 10515,
      "minorities": 10516,
      "Headquarters": 10517,
      "consequences": 10518,
      "Cultural": 10519,
      "female": 10520,
      "Bangladesh": 10521,
      "Uganda": 10522,
      "Because": 10523,
      "Bosnia": 10524,
      "Philippines": 10525,
      "乌干达": 10526,
      "利比里亚": 10527,
      "79": 10528,
      "FCCC": 10529,
      "Hoc": 10530,
      "Lib": 10531,
      "Pop": 10532,
      "Resp": 10533,
      "Session": 10534,
      "Will": 10535,
      "ees": 10536,
      "fast": 10537,
      "ograph": 10538,
      "sk": 10539,
      "uter": 10540,
      "上诉": 10541,
      "丹麦": 10542,
      "为基础": 10543,
      "乌克兰": 10544,
      "今年": 10545,
      "坚持": 10546,
      "完整": 10547,
      "尽快": 10548,
      "希腊": 10549,
      "我现在": 10550,
      "我只是": 10551,
      "我觉得": 10552,
      "摩洛": 10553,
      "方针": 10554,
      "旅游": 10555,
      "是吗": 10556,
      "普通": 10557,
      "次级": 10558,
      "白俄罗斯": 10559,
      "的有关": 10560,
      "的必要": 10561,
      "的说明": 10562,
      "的东西": 10563,
      "的经验": 10564,
      "看来": 10565,
      "背景": 10566,
      "良好": 10567,
[...]
